/* Generated by Edge Impulse
 *
 * Permission is hereby granted, free of charge, to any person obtaining a copy
 * of this software and associated documentation files (the "Software"), to deal
 * in the Software without restriction, including without limitation the rights
 * to use, copy, modify, merge, publish, distribute, sublicense, and/or sell
 * copies of the Software, and to permit persons to whom the Software is
 * furnished to do so, subject to the following conditions:
 *
 * The above copyright notice and this permission notice shall be included in
 * all copies or substantial portions of the Software.
 *
 * THE SOFTWARE IS PROVIDED "AS IS", WITHOUT WARRANTY OF ANY KIND, EXPRESS OR
 * IMPLIED, INCLUDING BUT NOT LIMITED TO THE WARRANTIES OF MERCHANTABILITY,
 * FITNESS FOR A PARTICULAR PURPOSE AND NONINFRINGEMENT. IN NO EVENT SHALL THE
 * AUTHORS OR COPYRIGHT HOLDERS BE LIABLE FOR ANY CLAIM, DAMAGES OR OTHER
 * LIABILITY, WHETHER IN AN ACTION OF CONTRACT, TORT OR OTHERWISE, ARISING FROM,
 * OUT OF OR IN CONNECTION WITH THE SOFTWARE OR THE USE OR OTHER DEALINGS IN THE
 * SOFTWARE.
 */

#ifndef _EI_CLASSIFIER_TFLITE_LEARN_13_H_
#define _EI_CLASSIFIER_TFLITE_LEARN_13_H_

#define EI_CLASSIFIER_TFLITE_LEARN_13_ARENA_SIZE     6265
const size_t tflite_learn_13_arena_size = 6265;

#ifdef EI_CLASSIFIER_TFLITE_ARENA_SIZE
#if EI_CLASSIFIER_TFLITE_ARENA_SIZE < EI_CLASSIFIER_TFLITE_LEARN_13_ARENA_SIZE
#undef EI_CLASSIFIER_TFLITE_ARENA_SIZE
#define EI_CLASSIFIER_TFLITE_ARENA_SIZE EI_CLASSIFIER_TFLITE_LEARN_13_ARENA_SIZE
#endif // #if EI_CLASSIFIER_TFLITE_ARENA_SIZE < EI_CLASSIFIER_TFLITE_LEARN_13_ARENA_SIZE
#else
#define EI_CLASSIFIER_TFLITE_ARENA_SIZE EI_CLASSIFIER_TFLITE_LEARN_13_ARENA_SIZE
#endif // #ifdef EI_CLASSIFIER_TFLITE_ARENA_SIZE

#if defined __GNUC__
#define ALIGN(X) __attribute__((aligned(X)))
#elif defined _MSC_VER
#define ALIGN(X) __declspec(align(X))
#elif defined __TASKING__
#define ALIGN(X) __align(X)
#else
#define ALIGN(X)
#endif
ALIGN(16) const unsigned char tflite_learn_13[] = {
  0x20, 0x00, 0x00, 0x00, 0x54, 0x46, 0x4c, 0x33, 0x00, 0x00, 0x00, 0x00,
  0x14, 0x00, 0x20, 0x00, 0x1c, 0x00, 0x18, 0x00, 0x14, 0x00, 0x10, 0x00,
  0x0c, 0x00, 0x00, 0x00, 0x08, 0x00, 0x04, 0x00, 0x14, 0x00, 0x00, 0x00,
  0x1c, 0x00, 0x00, 0x00, 0x8c, 0x00, 0x00, 0x00, 0xe4, 0x00, 0x00, 0x00,
  0x08, 0x0a, 0x00, 0x00, 0x18, 0x0a, 0x00, 0x00, 0x24, 0x1a, 0x00, 0x00,
  0x03, 0x00, 0x00, 0x00, 0x01, 0x00, 0x00, 0x00, 0x10, 0x00, 0x00, 0x00,
  0x00, 0x00, 0x0a, 0x00, 0x10, 0x00, 0x0c, 0x00, 0x08, 0x00, 0x04, 0x00,
  0x0a, 0x00, 0x00, 0x00, 0x0c, 0x00, 0x00, 0x00, 0x1c, 0x00, 0x00, 0x00,
  0x3c, 0x00, 0x00, 0x00, 0x0f, 0x00, 0x00, 0x00, 0x73, 0x65, 0x72, 0x76,
  0x69, 0x6e, 0x67, 0x5f, 0x64, 0x65, 0x66, 0x61, 0x75, 0x6c, 0x74, 0x00,
  0x01, 0x00, 0x00, 0x00, 0x04, 0x00, 0x00, 0x00, 0x9c, 0xff, 0xff, 0xff,
  0x16, 0x00, 0x00, 0x00, 0x04, 0x00, 0x00, 0x00, 0x08, 0x00, 0x00, 0x00,
  0x6f, 0x75, 0x74, 0x70, 0x75, 0x74, 0x5f, 0x30, 0x00, 0x00, 0x00, 0x00,
  0x01, 0x00, 0x00, 0x00, 0x04, 0x00, 0x00, 0x00, 0xd2, 0xf5, 0xff, 0xff,
  0x04, 0x00, 0x00, 0x00, 0x01, 0x00, 0x00, 0x00, 0x78, 0x00, 0x00, 0x00,
  0x02, 0x00, 0x00, 0x00, 0x34, 0x00, 0x00, 0x00, 0x04, 0x00, 0x00, 0x00,
  0xdc, 0xff, 0xff, 0xff, 0x19, 0x00, 0x00, 0x00, 0x04, 0x00, 0x00, 0x00,
  0x13, 0x00, 0x00, 0x00, 0x43, 0x4f, 0x4e, 0x56, 0x45, 0x52, 0x53, 0x49,
  0x4f, 0x4e, 0x5f, 0x4d, 0x45, 0x54, 0x41, 0x44, 0x41, 0x54, 0x41, 0x00,
  0x08, 0x00, 0x0c, 0x00, 0x08, 0x00, 0x04, 0x00, 0x08, 0x00, 0x00, 0x00,
  0x18, 0x00, 0x00, 0x00, 0x04, 0x00, 0x00, 0x00, 0x13, 0x00, 0x00, 0x00,
  0x6d, 0x69, 0x6e, 0x5f, 0x72, 0x75, 0x6e, 0x74, 0x69, 0x6d, 0x65, 0x5f,
  0x76, 0x65, 0x72, 0x73, 0x69, 0x6f, 0x6e, 0x00, 0x1a, 0x00, 0x00, 0x00,
  0x20, 0x09, 0x00, 0x00, 0x18, 0x09, 0x00, 0x00, 0xf8, 0x08, 0x00, 0x00,
  0xd8, 0x08, 0x00, 0x00, 0xb8, 0x08, 0x00, 0x00, 0x98, 0x08, 0x00, 0x00,
  0x80, 0x08, 0x00, 0x00, 0x5c, 0x08, 0x00, 0x00, 0x3c, 0x04, 0x00, 0x00,
  0xec, 0x03, 0x00, 0x00, 0x5c, 0x02, 0x00, 0x00, 0x2c, 0x02, 0x00, 0x00,
  0xe4, 0x00, 0x00, 0x00, 0xdc, 0x00, 0x00, 0x00, 0xd4, 0x00, 0x00, 0x00,
  0xcc, 0x00, 0x00, 0x00, 0xc4, 0x00, 0x00, 0x00, 0xbc, 0x00, 0x00, 0x00,
  0xb4, 0x00, 0x00, 0x00, 0xac, 0x00, 0x00, 0x00, 0xa4, 0x00, 0x00, 0x00,
  0x9c, 0x00, 0x00, 0x00, 0x94, 0x00, 0x00, 0x00, 0x8c, 0x00, 0x00, 0x00,
  0x6c, 0x00, 0x00, 0x00, 0x04, 0x00, 0x00, 0x00, 0xaa, 0xf6, 0xff, 0xff,
  0x04, 0x00, 0x00, 0x00, 0x58, 0x00, 0x00, 0x00, 0x0c, 0x00, 0x00, 0x00,
  0x08, 0x00, 0x0e, 0x00, 0x08, 0x00, 0x04, 0x00, 0x08, 0x00, 0x00, 0x00,
  0x10, 0x00, 0x00, 0x00, 0x28, 0x00, 0x00, 0x00, 0x00, 0x00, 0x06, 0x00,
  0x08, 0x00, 0x04, 0x00, 0x06, 0x00, 0x00, 0x00, 0x04, 0x00, 0x00, 0x00,
  0x01, 0x00, 0x00, 0x00, 0xeb, 0x03, 0x00, 0x00, 0x00, 0x00, 0x0a, 0x00,
  0x10, 0x00, 0x0c, 0x00, 0x08, 0x00, 0x04, 0x00, 0x0a, 0x00, 0x00, 0x00,
  0x03, 0x00, 0x00, 0x00, 0x02, 0x00, 0x00, 0x00, 0x04, 0x00, 0x00, 0x00,
  0x06, 0x00, 0x00, 0x00, 0x32, 0x2e, 0x31, 0x31, 0x2e, 0x31, 0x00, 0x00,
  0x0e, 0xf7, 0xff, 0xff, 0x04, 0x00, 0x00, 0x00, 0x10, 0x00, 0x00, 0x00,
  0x31, 0x2e, 0x31, 0x34, 0x2e, 0x30, 0x00, 0x00, 0x00, 0x00, 0x00, 0x00,
  0x00, 0x00, 0x00, 0x00, 0x5c, 0xe8, 0xff, 0xff, 0x60, 0xe8, 0xff, 0xff,
  0x64, 0xe8, 0xff, 0xff, 0x68, 0xe8, 0xff, 0xff, 0x6c, 0xe8, 0xff, 0xff,
  0x70, 0xe8, 0xff, 0xff, 0x74, 0xe8, 0xff, 0xff, 0x78, 0xe8, 0xff, 0xff,
  0x7c, 0xe8, 0xff, 0xff, 0x80, 0xe8, 0xff, 0xff, 0x84, 0xe8, 0xff, 0xff,
  0x56, 0xf7, 0xff, 0xff, 0x04, 0x00, 0x00, 0x00, 0x38, 0x01, 0x00, 0x00,
  0x86, 0x81, 0x3c, 0x0e, 0x10, 0x0d, 0x0b, 0x0e, 0x13, 0x03, 0xf0, 0xfa,
  0xf8, 0xc6, 0xea, 0xe9, 0x10, 0x18, 0xfa, 0xff, 0x16, 0xf4, 0xf4, 0x13,
  0xfd, 0xfb, 0x37, 0xcc, 0xeb, 0x0a, 0x2e, 0x0c, 0x07, 0xf6, 0x0c, 0xf6,
  0xf7, 0xfc, 0x05, 0x0c, 0x29, 0xe4, 0xd3, 0x0f, 0xf1, 0x17, 0xf3, 0x05,
  0x14, 0x08, 0xd0, 0xf7, 0x7f, 0xee, 0xf8, 0xe2, 0x1d, 0x0b, 0x0f, 0x15,
  0x15, 0xfa, 0xee, 0xef, 0x09, 0x4e, 0xea, 0xb9, 0x2b, 0x10, 0xfc, 0xe6,
  0x19, 0x22, 0x0c, 0xe9, 0xfb, 0xfc, 0x4c, 0xd8, 0xe1, 0xec, 0xfd, 0x05,
  0x0c, 0x08, 0x03, 0x0b, 0xfa, 0xfa, 0x03, 0x18, 0x7f, 0x29, 0x06, 0xf2,
  0x03, 0xfa, 0xf6, 0x02, 0xfb, 0x0e, 0x03, 0xfe, 0x82, 0xb6, 0xe8, 0x04,
  0x10, 0x13, 0x00, 0x01, 0x09, 0x08, 0xfc, 0x04, 0x00, 0x81, 0x01, 0x01,
  0x02, 0xfc, 0x05, 0xff, 0x04, 0x01, 0x00, 0xff, 0x01, 0x01, 0x2a, 0x09,
  0x03, 0x01, 0x02, 0xff, 0x02, 0x01, 0xfb, 0x00, 0x00, 0x02, 0x04, 0x4f,
  0xfa, 0xf9, 0x00, 0x00, 0x00, 0xff, 0x03, 0x04, 0x00, 0x01, 0xfe, 0x01,
  0x77, 0xd2, 0x12, 0x15, 0x0b, 0xf3, 0xcf, 0x0f, 0x1f, 0x0d, 0xf5, 0xee,
  0x0b, 0x7f, 0xfc, 0x36, 0x02, 0x09, 0xeb, 0xf8, 0xf1, 0x14, 0x08, 0x02,
  0x01, 0x03, 0xb9, 0x82, 0x34, 0xfa, 0x16, 0x02, 0xf3, 0x0d, 0x08, 0x01,
  0x01, 0x03, 0x06, 0xf8, 0x4a, 0x70, 0x34, 0xe4, 0xf8, 0xdd, 0xb8, 0xe8,
  0x09, 0xee, 0x10, 0xfa, 0x10, 0x1b, 0x2a, 0x39, 0xc9, 0x2d, 0xc4, 0xdc,
  0xf1, 0xf7, 0x17, 0x03, 0x09, 0x7f, 0x41, 0xc0, 0x40, 0xcd, 0xec, 0xe0,
  0x14, 0x1c, 0x2e, 0xfe, 0xde, 0xf4, 0x62, 0x51, 0xef, 0x1c, 0xc9, 0x00,
  0x0c, 0xf7, 0xe0, 0x11, 0x20, 0xff, 0xef, 0x28, 0x14, 0x5f, 0x9f, 0x20,
  0xc4, 0x3a, 0xd1, 0x08, 0xea, 0x23, 0xf3, 0x0c, 0x21, 0x7f, 0x27, 0xf4,
  0x93, 0x14, 0x2f, 0x1a, 0xd9, 0xec, 0xea, 0x30, 0xf3, 0x7f, 0x02, 0xe8,
  0x0f, 0x07, 0xef, 0xea, 0x0b, 0x09, 0x08, 0xfa, 0xff, 0xfb, 0xe2, 0xea,
  0x12, 0x1e, 0x01, 0xdb, 0xf8, 0x0a, 0x00, 0xf7, 0x06, 0xfc, 0xff, 0xe5,
  0xff, 0x0c, 0x30, 0xef, 0xd6, 0xfb, 0xf4, 0xf1, 0xf8, 0x0c, 0x01, 0xfd,
  0x9a, 0xf8, 0xff, 0xff, 0x04, 0x00, 0x00, 0x00, 0x20, 0x00, 0x00, 0x00,
  0x8e, 0x00, 0x00, 0x00, 0x7f, 0xec, 0xff, 0xff, 0xef, 0xf9, 0xff, 0xff,
  0x6e, 0xfe, 0xff, 0xff, 0x0a, 0xf7, 0xff, 0xff, 0xeb, 0xd5, 0xff, 0xff,
  0x10, 0xe1, 0xff, 0xff, 0x9a, 0xf1, 0xff, 0xff, 0xc6, 0xf8, 0xff, 0xff,
  0x04, 0x00, 0x00, 0x00, 0x80, 0x01, 0x00, 0x00, 0x81, 0x00, 0xff, 0xf2,
  0x02, 0x01, 0x08, 0xff, 0xf3, 0xfa, 0x01, 0xbe, 0xff, 0xfc, 0x00, 0xfe,
  0xfe, 0xf4, 0x00, 0xe1, 0xff, 0xf9, 0x09, 0xfe, 0x81, 0x01, 0xf9, 0xfe,
  0xdf, 0xe9, 0xfe, 0x0e, 0xaa, 0x00, 0xf8, 0xe5, 0x00, 0xe6, 0xf0, 0xea,
  0xeb, 0x07, 0x05, 0x17, 0x03, 0xdd, 0xea, 0x39, 0x81, 0x02, 0xf5, 0xef,
  0x00, 0xff, 0x00, 0xff, 0xb2, 0xfd, 0xf4, 0xe2, 0x00, 0x00, 0xfc, 0x04,
  0xd5, 0xf9, 0xfd, 0xb1, 0x01, 0x02, 0x0a, 0x04, 0xf7, 0xdb, 0xf6, 0xed,
  0x24, 0xed, 0x81, 0xed, 0x04, 0xe7, 0xfc, 0x08, 0xf8, 0x04, 0xdc, 0x05,
  0x01, 0x09, 0xbb, 0x08, 0xf3, 0x06, 0x0c, 0xfb, 0xf7, 0xfc, 0xfa, 0x00,
  0xea, 0x01, 0x01, 0xdb, 0x81, 0xfb, 0xf6, 0xff, 0xf9, 0xff, 0x01, 0xf3,
  0xd8, 0x0c, 0xfe, 0xfd, 0xfb, 0x00, 0xff, 0xfe, 0xe4, 0x05, 0x01, 0xb6,
  0xe6, 0xf3, 0x05, 0xfb, 0xfe, 0xfb, 0x03, 0xfc, 0xe5, 0xe8, 0x00, 0xef,
  0xff, 0xf9, 0x04, 0x00, 0x81, 0xc3, 0xfc, 0xe1, 0x15, 0xe3, 0x0c, 0xfe,
  0xf2, 0xbe, 0xc7, 0xbc, 0xff, 0xf9, 0x05, 0xff, 0xf4, 0xbf, 0x81, 0xe6,
  0x03, 0x1f, 0x02, 0xff, 0xfb, 0xfe, 0xaf, 0x08, 0x81, 0x08, 0xbc, 0xfe,
  0xfd, 0x13, 0x02, 0x00, 0x9a, 0x01, 0xf2, 0xf7, 0xfa, 0xfe, 0xff, 0xff,
  0xc7, 0x06, 0xfc, 0xe4, 0x03, 0xe6, 0x01, 0xfe, 0xd5, 0x1a, 0xf1, 0x2b,
  0x39, 0xc5, 0xd8, 0xeb, 0xb8, 0x18, 0x10, 0xf5, 0x00, 0xb9, 0xd4, 0x1f,
  0xc1, 0xb7, 0x31, 0xf0, 0xd9, 0x81, 0x92, 0x08, 0xfb, 0xeb, 0xfe, 0x04,
  0xe5, 0x15, 0x14, 0x05, 0xe1, 0x05, 0xa0, 0x01, 0xf5, 0x02, 0xf7, 0x00,
  0x81, 0x0b, 0xd4, 0xf9, 0x06, 0x21, 0xee, 0x00, 0x81, 0x05, 0xe9, 0xf8,
  0xf9, 0xfc, 0x04, 0xf0, 0xad, 0xff, 0xef, 0xb2, 0xff, 0xfa, 0xfd, 0xf5,
  0x99, 0xfc, 0xea, 0xb7, 0x01, 0x08, 0xfb, 0x1b, 0xf4, 0x2c, 0xeb, 0xfe,
  0x08, 0xde, 0xea, 0x18, 0xb5, 0xe2, 0xef, 0x81, 0x0a, 0x00, 0xf3, 0x0e,
  0xe5, 0xb6, 0xe5, 0xcc, 0xfa, 0x04, 0xff, 0x16, 0x8a, 0x04, 0xf7, 0xdb,
  0xef, 0xea, 0x02, 0xf9, 0x81, 0x04, 0x01, 0xca, 0xf2, 0xc8, 0x22, 0xd7,
  0xf7, 0x04, 0xff, 0x84, 0xee, 0xe5, 0xf2, 0x3d, 0x01, 0xf6, 0xdc, 0xba,
  0xf0, 0x0c, 0x17, 0xf1, 0x05, 0xf7, 0xcc, 0xd7, 0xea, 0xa4, 0xe4, 0xfb,
  0x02, 0xf2, 0xdb, 0xdd, 0xe9, 0x81, 0xd0, 0xf0, 0x03, 0xe1, 0xe7, 0x03,
  0xff, 0xff, 0xba, 0xeb, 0xfe, 0xde, 0xe6, 0xff, 0xfd, 0xf6, 0x8d, 0xf2,
  0x00, 0xe3, 0xf2, 0xfe, 0x16, 0xf8, 0x81, 0xf6, 0xff, 0xaf, 0xf8, 0xfd,
  0xf1, 0xde, 0xfc, 0xed, 0x00, 0x81, 0xfd, 0x01, 0xb1, 0xfc, 0x04, 0xfb,
  0xfc, 0xf8, 0xf6, 0x00, 0xe8, 0x07, 0x07, 0x00, 0x52, 0xfa, 0xff, 0xff,
  0x04, 0x00, 0x00, 0x00, 0x40, 0x00, 0x00, 0x00, 0x05, 0x00, 0x00, 0x00,
  0x14, 0x00, 0x00, 0x00, 0x1d, 0x00, 0x00, 0x00, 0x5c, 0xfa, 0xff, 0xff,
  0xbc, 0xff, 0xff, 0xff, 0x4c, 0x00, 0x00, 0x00, 0xa0, 0xfc, 0xff, 0xff,
  0x2c, 0x00, 0x00, 0x00, 0xba, 0x02, 0x00, 0x00, 0x47, 0xfe, 0xff, 0xff,
  0xf3, 0xfe, 0xff, 0xff, 0xad, 0xfc, 0xff, 0xff, 0x75, 0xfe, 0xff, 0xff,
  0x52, 0x03, 0x00, 0x00, 0x9a, 0xfd, 0xff, 0xff, 0x02, 0x00, 0x00, 0x00,
  0x9e, 0xfa, 0xff, 0xff, 0x04, 0x00, 0x00, 0x00, 0x10, 0x04, 0x00, 0x00,
  0xe8, 0xf8, 0xd1, 0x04, 0xd0, 0xe9, 0x03, 0xe3, 0xf9, 0xee, 0xe5, 0xcb,
  0xca, 0x0e, 0xf0, 0xf3, 0xff, 0xfd, 0x0c, 0xf6, 0xdd, 0xf2, 0x02, 0x00,
  0xf9, 0xf3, 0xec, 0xda, 0xe6, 0x00, 0xea, 0xfa, 0x07, 0xfc, 0x0b, 0xea,
  0xe4, 0xf9, 0x02, 0x06, 0xfa, 0xff, 0xdd, 0xe8, 0xf1, 0x0b, 0xd8, 0xf2,
  0x0f, 0xf2, 0x0e, 0xd5, 0xe6, 0xfe, 0x03, 0x04, 0xf4, 0x01, 0xf7, 0x01,
  0xfc, 0x06, 0xda, 0xea, 0x13, 0xfa, 0x0e, 0xdd, 0xd7, 0xf7, 0x08, 0x05,
  0xf6, 0x02, 0xeb, 0xfa, 0xf5, 0x0a, 0xd0, 0xf0, 0x10, 0xf3, 0x0f, 0xd8,
  0xea, 0xfe, 0xff, 0x05, 0xf5, 0xff, 0xed, 0xf2, 0x01, 0x0a, 0xc8, 0xe8,
  0x12, 0xf7, 0x10, 0xe3, 0xea, 0xfe, 0x02, 0x05, 0xf8, 0x00, 0xf3, 0xf0,
  0xf8, 0x0a, 0xca, 0xf2, 0x09, 0xf4, 0x13, 0xe7, 0xdf, 0x01, 0xff, 0x0c,
  0xf8, 0x00, 0xfe, 0xf1, 0x03, 0x0b, 0xbd, 0xf4, 0x10, 0xfb, 0x15, 0xd7,
  0xe9, 0x0d, 0x01, 0x08, 0xfb, 0x00, 0xf4, 0x03, 0xf9, 0x0f, 0xc3, 0xfc,
  0x08, 0xe8, 0x0d, 0xd4, 0xe0, 0x04, 0x04, 0x09, 0xf5, 0xf2, 0xee, 0xfc,
  0x00, 0x0c, 0xd5, 0xf6, 0x17, 0xf5, 0x0c, 0xc7, 0xe8, 0x05, 0xfd, 0xf9,
  0xf1, 0xfc, 0xf6, 0xef, 0xff, 0x0d, 0xb8, 0xf2, 0x08, 0xfe, 0x04, 0xc6,
  0xe4, 0x00, 0x04, 0x03, 0xec, 0x02, 0xe9, 0xed, 0xf9, 0x0f, 0xdd, 0xf2,
  0xff, 0xdd, 0xce, 0xd6, 0xe7, 0xf6, 0x01, 0xe9, 0xee, 0xf1, 0xe7, 0xe5,
  0xe8, 0x09, 0x8e, 0x10, 0xeb, 0xfe, 0xf8, 0xea, 0xe9, 0x0a, 0x00, 0xe4,
  0xf7, 0x11, 0xef, 0xdf, 0xe6, 0x04, 0xed, 0x0f, 0xf2, 0xf7, 0xf0, 0xfb,
  0x03, 0x02, 0xf7, 0x0a, 0xf1, 0x0d, 0xe6, 0xed, 0xe2, 0xff, 0xea, 0x09,
  0xe4, 0xf5, 0xed, 0xed, 0x0d, 0xea, 0xfc, 0x0b, 0xf5, 0x0b, 0xf2, 0xe8,
  0xe1, 0x02, 0xe8, 0x0b, 0xed, 0xfd, 0xec, 0xf8, 0x06, 0xf9, 0xf9, 0x0e,
  0xfc, 0x0c, 0xe3, 0xf2, 0xe9, 0x01, 0xdd, 0x09, 0xf3, 0x00, 0xef, 0xf4,
  0x0b, 0xf7, 0xf6, 0x12, 0x01, 0x04, 0xee, 0xf6, 0xdf, 0xfa, 0xf3, 0x10,
  0xed, 0xf1, 0xef, 0xfa, 0x0e, 0xf1, 0xf9, 0x10, 0x01, 0x0c, 0xeb, 0xf9,
  0xea, 0xff, 0xf1, 0x05, 0xeb, 0xf4, 0xf1, 0xfb, 0x09, 0xed, 0xfb, 0x10,
  0xf7, 0x09, 0xec, 0xf9, 0xe2, 0xf5, 0xf8, 0x0e, 0xea, 0xf5, 0xf4, 0x00,
  0x02, 0xf7, 0xf2, 0x12, 0xfd, 0x0a, 0xfa, 0xfa, 0xe5, 0xf0, 0xfc, 0x00,
  0xe6, 0xf3, 0xea, 0xfd, 0x09, 0xe8, 0xee, 0x08, 0x04, 0x04, 0xf0, 0xf7,
  0xf2, 0x03, 0xf9, 0x0b, 0xe5, 0xf7, 0xee, 0xfb, 0x0b, 0xf4, 0xf3, 0x0b,
  0xf9, 0x06, 0xee, 0xf0, 0xe8, 0xf5, 0xff, 0x05, 0xe7, 0xe9, 0xf5, 0x00,
  0x0a, 0xf4, 0xee, 0x05, 0x03, 0x0b, 0xf4, 0xf2, 0xed, 0xf9, 0xf6, 0xed,
  0xef, 0xfb, 0xee, 0xf9, 0xe9, 0xf3, 0xfb, 0xfe, 0xfd, 0x05, 0xf2, 0xfa,
  0xf3, 0x07, 0xf6, 0xed, 0xe0, 0xe0, 0xfa, 0xf0, 0xc1, 0xf1, 0xf2, 0xe8,
  0xf8, 0xd8, 0xd7, 0xf5, 0xc5, 0xfd, 0x01, 0xf9, 0xf8, 0x05, 0xf6, 0xf5,
  0xe7, 0x09, 0x06, 0xf8, 0x10, 0xef, 0xe8, 0x06, 0xfa, 0xf2, 0xfa, 0xf4,
  0x0d, 0xff, 0xe7, 0x01, 0xe6, 0x0d, 0x03, 0xf2, 0x09, 0xed, 0xed, 0x0b,
  0xd8, 0xe2, 0xfb, 0xec, 0xfb, 0x04, 0xf8, 0x06, 0xf3, 0x0b, 0x0e, 0xf2,
  0x0a, 0xdd, 0xf1, 0xfc, 0xe2, 0xee, 0x07, 0xe1, 0xf4, 0x03, 0xec, 0x02,
  0xf0, 0x0a, 0x0d, 0xe4, 0x0d, 0xee, 0xf6, 0x0c, 0xe3, 0xee, 0x01, 0xe6,
  0xf7, 0xfe, 0xee, 0xfe, 0xf7, 0x02, 0x07, 0xe4, 0x0c, 0xe1, 0xf7, 0xfc,
  0xdc, 0xf1, 0xff, 0xec, 0xf3, 0x04, 0xe9, 0x04, 0xee, 0x04, 0x02, 0xd8,
  0x10, 0xe7, 0xfe, 0x00, 0xdd, 0xf8, 0xff, 0xf6, 0xfe, 0x03, 0xed, 0x05,
  0xe8, 0x02, 0x01, 0xde, 0x02, 0xe8, 0xf7, 0x06, 0xee, 0xf3, 0xfe, 0xf3,
  0xf1, 0x09, 0xed, 0x02, 0xf4, 0x07, 0x09, 0xe4, 0x04, 0xeb, 0xf7, 0x02,
  0xdf, 0xeb, 0xfe, 0xf5, 0xf0, 0x00, 0xe9, 0xff, 0xef, 0xff, 0x03, 0xeb,
  0x04, 0xe7, 0xec, 0x0c, 0xe0, 0xeb, 0xfc, 0xf1, 0xfd, 0x08, 0xf5, 0xfc,
  0xf4, 0xfc, 0x0e, 0xef, 0x00, 0xe4, 0xf3, 0xff, 0xea, 0xe8, 0xf5, 0x06,
  0xf0, 0xff, 0xfb, 0xfd, 0xf6, 0xfd, 0x0c, 0xee, 0xfe, 0xeb, 0xf5, 0xff,
  0xe2, 0xde, 0xfe, 0xeb, 0xf6, 0x01, 0xf2, 0xfc, 0xf0, 0xf9, 0x0d, 0xf1,
  0xfe, 0xf9, 0xee, 0x05, 0xe9, 0xd5, 0xf5, 0xeb, 0x00, 0x00, 0x13, 0xf5,
  0xfd, 0x08, 0x02, 0xfe, 0x0a, 0xdb, 0xd5, 0xfa, 0xd7, 0xef, 0x44, 0xcd,
  0xe5, 0xf9, 0xe7, 0xfb, 0xf5, 0xea, 0xff, 0xe5, 0xf8, 0xf4, 0xd3, 0xd5,
  0xdd, 0x06, 0xf3, 0x04, 0xc5, 0xfd, 0x05, 0xfb, 0x08, 0xe3, 0xfe, 0x06,
  0xf2, 0xfd, 0x11, 0xf9, 0xec, 0x03, 0xf4, 0x05, 0xec, 0x0a, 0x01, 0xe0,
  0x12, 0xe9, 0x00, 0x08, 0xfb, 0xfe, 0x16, 0x0f, 0xf0, 0x05, 0xf1, 0x03,
  0xed, 0x0e, 0x07, 0xde, 0x0b, 0xf0, 0xf0, 0x03, 0xfc, 0xfa, 0x11, 0x16,
  0xf8, 0x07, 0xe5, 0x08, 0xef, 0x0b, 0x0b, 0xf3, 0x0c, 0xe3, 0xf8, 0x07,
  0xfc, 0xf9, 0x08, 0x10, 0xf3, 0x06, 0xfa, 0x03, 0xec, 0x0c, 0x03, 0xee,
  0x11, 0xe3, 0xf7, 0x04, 0x01, 0xfa, 0x0d, 0x0a, 0x01, 0x08, 0x09, 0x05,
  0xec, 0x11, 0x0a, 0xf2, 0x0f, 0xde, 0xfa, 0x02, 0xff, 0x02, 0x12, 0x16,
  0x01, 0x0e, 0x00, 0x02, 0xe8, 0x0e, 0x06, 0xf6, 0x10, 0xd9, 0xf4, 0x08,
  0x00, 0x01, 0x06, 0x0e, 0xfd, 0x01, 0x04, 0x07, 0xf2, 0x0c, 0x0a, 0xf6,
  0x0e, 0xd5, 0xf9, 0x03, 0x01, 0xfa, 0x10, 0x0f, 0xfd, 0x05, 0x05, 0xfa,
  0xee, 0x0e, 0x09, 0xf8, 0x10, 0xde, 0xff, 0x06, 0xfc, 0xf8, 0x04, 0x0d,
  0xf6, 0x09, 0x02, 0xfd, 0xee, 0x00, 0xff, 0xf0, 0x0c, 0xdf, 0xf8, 0xff,
  0xf8, 0xf8, 0x0a, 0x02, 0xfd, 0x11, 0xf9, 0xf8, 0xcf, 0x0c, 0x02, 0xf5,
  0x11, 0xe7, 0xfb, 0xfa, 0xfb, 0xf1, 0x08, 0x0d, 0x03, 0x09, 0xf5, 0xff,
  0xdf, 0xf8, 0x06, 0xf0, 0xde, 0xe1, 0xe9, 0xe7, 0xf4, 0xe6, 0xf5, 0x05,
  0xc6, 0x01, 0xc3, 0x16, 0xf5, 0xf9, 0xef, 0x05, 0xf8, 0x15, 0xf5, 0xf2,
  0xf8, 0xee, 0xdd, 0xec, 0xd2, 0x06, 0x08, 0xe2, 0xf3, 0xef, 0xf4, 0x0a,
  0xe8, 0xfe, 0xe9, 0xfa, 0xff, 0xdf, 0xea, 0xdc, 0xf2, 0x10, 0x10, 0xd9,
  0xff, 0xeb, 0xf8, 0x0c, 0xee, 0xf7, 0xf9, 0xff, 0x02, 0xeb, 0xcd, 0xda,
  0xf3, 0x00, 0x1f, 0xd5, 0xff, 0xed, 0x07, 0x17, 0xea, 0x11, 0xee, 0xfd,
  0xf6, 0xec, 0xd4, 0xcf, 0x02, 0x01, 0x1a, 0xda, 0x03, 0xe6, 0xfd, 0x11,
  0xf2, 0x13, 0xf0, 0x0a, 0xf5, 0xe9, 0xcb, 0xe3, 0xf2, 0xfd, 0x15, 0xee,
  0x0b, 0xe8, 0xfb, 0x12, 0xf8, 0x0f, 0xee, 0x03, 0xfc, 0xe7, 0xd2, 0xcc,
  0xff, 0xf0, 0x14, 0xe7, 0x0c, 0xea, 0xfe, 0x14, 0xf6, 0x13, 0xf0, 0x05,
  0x00, 0xed, 0xb7, 0xe3, 0xfd, 0x01, 0x12, 0xe7, 0x08, 0xf1, 0x01, 0x15,
  0xfe, 0x14, 0xf0, 0x03, 0xf7, 0xf3, 0xe4, 0xdd, 0xfd, 0xff, 0x0f, 0xf4,
  0xfe, 0xf3, 0xff, 0x08, 0xfe, 0x16, 0xe9, 0x05, 0x03, 0xec, 0xe3, 0xf0,
  0x02, 0x07, 0x04, 0xf0, 0x06, 0xf1, 0xff, 0x0a, 0xf8, 0x15, 0xee, 0x05,
  0xf6, 0xfd, 0xd8, 0xeb, 0x00, 0x04, 0xff, 0xeb, 0x09, 0xf4, 0xf9, 0x00,
  0x00, 0x0b, 0xf1, 0xf3, 0xff, 0xef, 0xd3, 0xec, 0x00, 0x06, 0xf4, 0xe6,
  0x02, 0xfa, 0xf9, 0xfe, 0xf2, 0x15, 0xf5, 0xfc, 0xf4, 0xf0, 0xf4, 0xd8,
  0x00, 0xff, 0xdf, 0xea, 0x03, 0x05, 0xd4, 0xea, 0xf7, 0x0b, 0xe6, 0xf9,
  0xf3, 0xe7, 0xda, 0xe2, 0xf4, 0x01, 0x81, 0x04, 0xba, 0xfe, 0xff, 0xff,
  0x04, 0x00, 0x00, 0x00, 0x14, 0x00, 0x00, 0x00, 0xd4, 0xfa, 0xff, 0xff,
  0x90, 0x02, 0x00, 0x00, 0x4d, 0x0b, 0x00, 0x00, 0x88, 0xf7, 0xff, 0xff,
  0xa7, 0xfc, 0xff, 0xff, 0xda, 0xfe, 0xff, 0xff, 0x04, 0x00, 0x00, 0x00,
  0x08, 0x00, 0x00, 0x00, 0xff, 0xff, 0xff, 0xff, 0xd0, 0x00, 0x00, 0x00,
  0xee, 0xfe, 0xff, 0xff, 0x04, 0x00, 0x00, 0x00, 0x10, 0x00, 0x00, 0x00,
  0x01, 0x00, 0x00, 0x00, 0x19, 0x00, 0x00, 0x00, 0x01, 0x00, 0x00, 0x00,
  0x10, 0x00, 0x00, 0x00, 0x0a, 0xff, 0xff, 0xff, 0x04, 0x00, 0x00, 0x00,
  0x10, 0x00, 0x00, 0x00, 0x01, 0x00, 0x00, 0x00, 0x01, 0x00, 0x00, 0x00,
  0x19, 0x00, 0x00, 0x00, 0x08, 0x00, 0x00, 0x00, 0x26, 0xff, 0xff, 0xff,
  0x04, 0x00, 0x00, 0x00, 0x10, 0x00, 0x00, 0x00, 0x01, 0x00, 0x00, 0x00,
  0x32, 0x00, 0x00, 0x00, 0x01, 0x00, 0x00, 0x00, 0x08, 0x00, 0x00, 0x00,
  0x42, 0xff, 0xff, 0xff, 0x04, 0x00, 0x00, 0x00, 0x10, 0x00, 0x00, 0x00,
  0x01, 0x00, 0x00, 0x00, 0x01, 0x00, 0x00, 0x00, 0x32, 0x00, 0x00, 0x00,
  0x0d, 0x00, 0x00, 0x00, 0x90, 0xf0, 0xff, 0xff, 0x94, 0xf0, 0xff, 0xff,
  0x0f, 0x00, 0x00, 0x00, 0x4d, 0x4c, 0x49, 0x52, 0x20, 0x43, 0x6f, 0x6e,
  0x76, 0x65, 0x72, 0x74, 0x65, 0x64, 0x2e, 0x00, 0x01, 0x00, 0x00, 0x00,
  0x14, 0x00, 0x00, 0x00, 0x00, 0x00, 0x0e, 0x00, 0x18, 0x00, 0x14, 0x00,
  0x10, 0x00, 0x0c, 0x00, 0x08, 0x00, 0x04, 0x00, 0x0e, 0x00, 0x00, 0x00,
  0x14, 0x00, 0x00, 0x00, 0x1c, 0x00, 0x00, 0x00, 0x84, 0x02, 0x00, 0x00,
  0x88, 0x02, 0x00, 0x00, 0x8c, 0x02, 0x00, 0x00, 0x04, 0x00, 0x00, 0x00,
  0x6d, 0x61, 0x69, 0x6e, 0x00, 0x00, 0x00, 0x00, 0x0b, 0x00, 0x00, 0x00,
  0x48, 0x02, 0x00, 0x00, 0xec, 0x01, 0x00, 0x00, 0xb8, 0x01, 0x00, 0x00,
  0x68, 0x01, 0x00, 0x00, 0x44, 0x01, 0x00, 0x00, 0x00, 0x01, 0x00, 0x00,
  0xdc, 0x00, 0x00, 0x00, 0x9c, 0x00, 0x00, 0x00, 0x78, 0x00, 0x00, 0x00,
  0x40, 0x00, 0x00, 0x00, 0x04, 0x00, 0x00, 0x00, 0x4a, 0xfe, 0xff, 0xff,
  0x1c, 0x00, 0x00, 0x00, 0x00, 0x00, 0x00, 0x09, 0x1c, 0x00, 0x00, 0x00,
  0x20, 0x00, 0x00, 0x00, 0x04, 0x00, 0x00, 0x00, 0x00, 0x00, 0x06, 0x00,
  0x08, 0x00, 0x04, 0x00, 0x06, 0x00, 0x00, 0x00, 0x00, 0x00, 0x80, 0x3f,
  0x01, 0x00, 0x00, 0x00, 0x16, 0x00, 0x00, 0x00, 0x01, 0x00, 0x00, 0x00,
  0x15, 0x00, 0x00, 0x00, 0x82, 0xfe, 0xff, 0xff, 0x14, 0x00, 0x00, 0x00,
  0x00, 0x00, 0x00, 0x08, 0x10, 0x00, 0x00, 0x00, 0x14, 0x00, 0x00, 0x00,
  0x03, 0x00, 0x00, 0x00, 0x68, 0xf1, 0xff, 0xff, 0x01, 0x00, 0x00, 0x00,
  0x15, 0x00, 0x00, 0x00, 0x03, 0x00, 0x00, 0x00, 0x14, 0x00, 0x00, 0x00,
  0x07, 0x00, 0x00, 0x00, 0x06, 0x00, 0x00, 0x00, 0x5a, 0xfe, 0xff, 0xff,
  0x08, 0x00, 0x00, 0x00, 0x0c, 0x00, 0x00, 0x00, 0x01, 0x00, 0x00, 0x00,
  0x14, 0x00, 0x00, 0x00, 0x02, 0x00, 0x00, 0x00, 0x13, 0x00, 0x00, 0x00,
  0x05, 0x00, 0x00, 0x00, 0xd6, 0xfe, 0xff, 0xff, 0x14, 0x00, 0x00, 0x00,
  0x00, 0x00, 0x00, 0x05, 0x20, 0x00, 0x00, 0x00, 0x24, 0x00, 0x00, 0x00,
  0x02, 0x00, 0x00, 0x00, 0x42, 0xff, 0xff, 0xff, 0x02, 0x00, 0x00, 0x00,
  0x01, 0x00, 0x00, 0x00, 0x02, 0x00, 0x00, 0x00, 0x01, 0x00, 0x00, 0x00,
  0x01, 0x00, 0x00, 0x00, 0x13, 0x00, 0x00, 0x00, 0x01, 0x00, 0x00, 0x00,
  0x12, 0x00, 0x00, 0x00, 0xb6, 0xfe, 0xff, 0xff, 0x08, 0x00, 0x00, 0x00,
  0x0c, 0x00, 0x00, 0x00, 0x01, 0x00, 0x00, 0x00, 0x12, 0x00, 0x00, 0x00,
  0x02, 0x00, 0x00, 0x00, 0x11, 0x00, 0x00, 0x00, 0x04, 0x00, 0x00, 0x00,
  0x32, 0xff, 0xff, 0xff, 0x14, 0x00, 0x00, 0x00, 0x00, 0x00, 0x00, 0x01,
  0x1c, 0x00, 0x00, 0x00, 0x20, 0x00, 0x00, 0x00, 0x01, 0x00, 0x00, 0x00,
  0x24, 0xff, 0xff, 0xff, 0x00, 0x00, 0x00, 0x01, 0x01, 0x00, 0x00, 0x00,
  0x01, 0x00, 0x00, 0x00, 0x01, 0x00, 0x00, 0x00, 0x11, 0x00, 0x00, 0x00,
  0x03, 0x00, 0x00, 0x00, 0x10, 0x00, 0x00, 0x00, 0x09, 0x00, 0x00, 0x00,
  0x08, 0x00, 0x00, 0x00, 0x16, 0xff, 0xff, 0xff, 0x08, 0x00, 0x00, 0x00,
  0x0c, 0x00, 0x00, 0x00, 0x01, 0x00, 0x00, 0x00, 0x10, 0x00, 0x00, 0x00,
  0x02, 0x00, 0x00, 0x00, 0x0f, 0x00, 0x00, 0x00, 0x03, 0x00, 0x00, 0x00,
  0x92, 0xff, 0xff, 0xff, 0x24, 0x00, 0x00, 0x00, 0x00, 0x00, 0x00, 0x05,
  0x30, 0x00, 0x00, 0x00, 0x34, 0x00, 0x00, 0x00, 0x02, 0x00, 0x00, 0x00,
  0x00, 0x00, 0x0e, 0x00, 0x14, 0x00, 0x00, 0x00, 0x10, 0x00, 0x0c, 0x00,
  0x08, 0x00, 0x04, 0x00, 0x0e, 0x00, 0x00, 0x00, 0x02, 0x00, 0x00, 0x00,
  0x01, 0x00, 0x00, 0x00, 0x02, 0x00, 0x00, 0x00, 0x01, 0x00, 0x00, 0x00,
  0x01, 0x00, 0x00, 0x00, 0x0f, 0x00, 0x00, 0x00, 0x01, 0x00, 0x00, 0x00,
  0x0e, 0x00, 0x00, 0x00, 0x82, 0xff, 0xff, 0xff, 0x08, 0x00, 0x00, 0x00,
  0x0c, 0x00, 0x00, 0x00, 0x01, 0x00, 0x00, 0x00, 0x0e, 0x00, 0x00, 0x00,
  0x02, 0x00, 0x00, 0x00, 0x0d, 0x00, 0x00, 0x00, 0x02, 0x00, 0x00, 0x00,
  0x00, 0x00, 0x0e, 0x00, 0x18, 0x00, 0x14, 0x00, 0x10, 0x00, 0x0c, 0x00,
  0x0b, 0x00, 0x04, 0x00, 0x0e, 0x00, 0x00, 0x00, 0x20, 0x00, 0x00, 0x00,
  0x00, 0x00, 0x00, 0x01, 0x28, 0x00, 0x00, 0x00, 0x2c, 0x00, 0x00, 0x00,
  0x01, 0x00, 0x00, 0x00, 0x0c, 0x00, 0x10, 0x00, 0x00, 0x00, 0x0c, 0x00,
  0x08, 0x00, 0x07, 0x00, 0x0c, 0x00, 0x00, 0x00, 0x00, 0x00, 0x00, 0x01,
  0x01, 0x00, 0x00, 0x00, 0x01, 0x00, 0x00, 0x00, 0x01, 0x00, 0x00, 0x00,
  0x0d, 0x00, 0x00, 0x00, 0x03, 0x00, 0x00, 0x00, 0x0c, 0x00, 0x00, 0x00,
  0x0b, 0x00, 0x00, 0x00, 0x0a, 0x00, 0x00, 0x00, 0x00, 0x00, 0x0a, 0x00,
  0x0c, 0x00, 0x00, 0x00, 0x08, 0x00, 0x04, 0x00, 0x0a, 0x00, 0x00, 0x00,
  0x08, 0x00, 0x00, 0x00, 0x0c, 0x00, 0x00, 0x00, 0x01, 0x00, 0x00, 0x00,
  0x0c, 0x00, 0x00, 0x00, 0x02, 0x00, 0x00, 0x00, 0x00, 0x00, 0x00, 0x00,
  0x01, 0x00, 0x00, 0x00, 0x01, 0x00, 0x00, 0x00, 0x16, 0x00, 0x00, 0x00,
  0x01, 0x00, 0x00, 0x00, 0x00, 0x00, 0x00, 0x00, 0x17, 0x00, 0x00, 0x00,
  0xe8, 0x0c, 0x00, 0x00, 0x78, 0x0c, 0x00, 0x00, 0x24, 0x0c, 0x00, 0x00,
  0xcc, 0x0b, 0x00, 0x00, 0x74, 0x0b, 0x00, 0x00, 0x28, 0x0b, 0x00, 0x00,
  0xac, 0x0a, 0x00, 0x00, 0x40, 0x0a, 0x00, 0x00, 0x14, 0x09, 0x00, 0x00,
  0xe8, 0x07, 0x00, 0x00, 0x1c, 0x07, 0x00, 0x00, 0x50, 0x06, 0x00, 0x00,
  0xcc, 0x05, 0x00, 0x00, 0xe0, 0x04, 0x00, 0x00, 0x5c, 0x04, 0x00, 0x00,
  0xe0, 0x03, 0x00, 0x00, 0x5c, 0x03, 0x00, 0x00, 0x60, 0x02, 0x00, 0x00,
  0xdc, 0x01, 0x00, 0x00, 0x60, 0x01, 0x00, 0x00, 0xf4, 0x00, 0x00, 0x00,
  0x70, 0x00, 0x00, 0x00, 0x04, 0x00, 0x00, 0x00, 0x8a, 0xf3, 0xff, 0xff,
  0x00, 0x00, 0x00, 0x01, 0x14, 0x00, 0x00, 0x00, 0x30, 0x00, 0x00, 0x00,
  0x17, 0x00, 0x00, 0x00, 0x00, 0x00, 0x00, 0x09, 0x44, 0x00, 0x00, 0x00,
  0x74, 0xf3, 0xff, 0xff, 0x08, 0x00, 0x00, 0x00, 0x10, 0x00, 0x00, 0x00,
  0x01, 0x00, 0x00, 0x00, 0x80, 0xff, 0xff, 0xff, 0xff, 0xff, 0xff, 0xff,
  0x01, 0x00, 0x00, 0x00, 0x00, 0x00, 0x80, 0x3b, 0x19, 0x00, 0x00, 0x00,
  0x53, 0x74, 0x61, 0x74, 0x65, 0x66, 0x75, 0x6c, 0x50, 0x61, 0x72, 0x74,
  0x69, 0x74, 0x69, 0x6f, 0x6e, 0x65, 0x64, 0x43, 0x61, 0x6c, 0x6c, 0x3a,
  0x30, 0x00, 0x00, 0x00, 0x02, 0x00, 0x00, 0x00, 0x01, 0x00, 0x00, 0x00,
  0x05, 0x00, 0x00, 0x00, 0xf2, 0xf3, 0xff, 0xff, 0x00, 0x00, 0x00, 0x01,
  0x14, 0x00, 0x00, 0x00, 0x30, 0x00, 0x00, 0x00, 0x16, 0x00, 0x00, 0x00,
  0x00, 0x00, 0x00, 0x09, 0x5c, 0x00, 0x00, 0x00, 0xdc, 0xf3, 0xff, 0xff,
  0x08, 0x00, 0x00, 0x00, 0x10, 0x00, 0x00, 0x00, 0x01, 0x00, 0x00, 0x00,
  0x3e, 0x00, 0x00, 0x00, 0x00, 0x00, 0x00, 0x00, 0x01, 0x00, 0x00, 0x00,
  0x7c, 0x9c, 0x1a, 0x3e, 0x32, 0x00, 0x00, 0x00, 0x73, 0x65, 0x71, 0x75,
  0x65, 0x6e, 0x74, 0x69, 0x61, 0x6c, 0x2f, 0x79, 0x5f, 0x70, 0x72, 0x65,
  0x64, 0x2f, 0x4d, 0x61, 0x74, 0x4d, 0x75, 0x6c, 0x3b, 0x73, 0x65, 0x71,
  0x75, 0x65, 0x6e, 0x74, 0x69, 0x61, 0x6c, 0x2f, 0x79, 0x5f, 0x70, 0x72,
  0x65, 0x64, 0x2f, 0x42, 0x69, 0x61, 0x73, 0x41, 0x64, 0x64, 0x00, 0x00,
  0x02, 0x00, 0x00, 0x00, 0x01, 0x00, 0x00, 0x00, 0x05, 0x00, 0x00, 0x00,
  0x72, 0xf4, 0xff, 0xff, 0x00, 0x00, 0x00, 0x01, 0x14, 0x00, 0x00, 0x00,
  0x30, 0x00, 0x00, 0x00, 0x15, 0x00, 0x00, 0x00, 0x00, 0x00, 0x00, 0x09,
  0x44, 0x00, 0x00, 0x00, 0x5c, 0xf4, 0xff, 0xff, 0x08, 0x00, 0x00, 0x00,
  0x10, 0x00, 0x00, 0x00, 0x01, 0x00, 0x00, 0x00, 0x80, 0xff, 0xff, 0xff,
  0xff, 0xff, 0xff, 0xff, 0x01, 0x00, 0x00, 0x00, 0x33, 0xf7, 0x1d, 0x3d,
  0x1a, 0x00, 0x00, 0x00, 0x73, 0x65, 0x71, 0x75, 0x65, 0x6e, 0x74, 0x69,
  0x61, 0x6c, 0x2f, 0x66, 0x6c, 0x61, 0x74, 0x74, 0x65, 0x6e, 0x2f, 0x52,
  0x65, 0x73, 0x68, 0x61, 0x70, 0x65, 0x00, 0x00, 0x02, 0x00, 0x00, 0x00,
  0x01, 0x00, 0x00, 0x00, 0xd0, 0x00, 0x00, 0x00, 0xda, 0xf4, 0xff, 0xff,
  0x00, 0x00, 0x00, 0x01, 0x14, 0x00, 0x00, 0x00, 0x30, 0x00, 0x00, 0x00,
  0x14, 0x00, 0x00, 0x00, 0x00, 0x00, 0x00, 0x09, 0x4c, 0x00, 0x00, 0x00,
  0xc4, 0xf4, 0xff, 0xff, 0x08, 0x00, 0x00, 0x00, 0x10, 0x00, 0x00, 0x00,
  0x01, 0x00, 0x00, 0x00, 0x80, 0xff, 0xff, 0xff, 0xff, 0xff, 0xff, 0xff,
  0x01, 0x00, 0x00, 0x00, 0x33, 0xf7, 0x1d, 0x3d, 0x22, 0x00, 0x00, 0x00,
  0x73, 0x65, 0x71, 0x75, 0x65, 0x6e, 0x74, 0x69, 0x61, 0x6c, 0x2f, 0x6d,
  0x61, 0x78, 0x5f, 0x70, 0x6f, 0x6f, 0x6c, 0x69, 0x6e, 0x67, 0x31, 0x64,
  0x5f, 0x31, 0x2f, 0x4d, 0x61, 0x78, 0x50, 0x6f, 0x6f, 0x6c, 0x00, 0x00,
  0x04, 0x00, 0x00, 0x00, 0x01, 0x00, 0x00, 0x00, 0x0d, 0x00, 0x00, 0x00,
  0x01, 0x00, 0x00, 0x00, 0x10, 0x00, 0x00, 0x00, 0x52, 0xf5, 0xff, 0xff,
  0x00, 0x00, 0x00, 0x01, 0x14, 0x00, 0x00, 0x00, 0x34, 0x00, 0x00, 0x00,
  0x13, 0x00, 0x00, 0x00, 0x00, 0x00, 0x00, 0x09, 0x54, 0x00, 0x00, 0x00,
  0x3c, 0xf5, 0xff, 0xff, 0x08, 0x00, 0x00, 0x00, 0x14, 0x00, 0x00, 0x00,
  0x01, 0x00, 0x00, 0x00, 0x80, 0xff, 0xff, 0xff, 0xff, 0xff, 0xff, 0xff,
  0x00, 0x00, 0x00, 0x00, 0x01, 0x00, 0x00, 0x00, 0x33, 0xf7, 0x1d, 0x3d,
  0x26, 0x00, 0x00, 0x00, 0x73, 0x65, 0x71, 0x75, 0x65, 0x6e, 0x74, 0x69,
  0x61, 0x6c, 0x2f, 0x6d, 0x61, 0x78, 0x5f, 0x70, 0x6f, 0x6f, 0x6c, 0x69,
  0x6e, 0x67, 0x31, 0x64, 0x5f, 0x31, 0x2f, 0x45, 0x78, 0x70, 0x61, 0x6e,
  0x64, 0x44, 0x69, 0x6d, 0x73, 0x31, 0x00, 0x00, 0x04, 0x00, 0x00, 0x00,
  0x01, 0x00, 0x00, 0x00, 0x19, 0x00, 0x00, 0x00, 0x01, 0x00, 0x00, 0x00,
  0x10, 0x00, 0x00, 0x00, 0xd2, 0xf5, 0xff, 0xff, 0x00, 0x00, 0x00, 0x01,
  0x14, 0x00, 0x00, 0x00, 0x34, 0x00, 0x00, 0x00, 0x12, 0x00, 0x00, 0x00,
  0x00, 0x00, 0x00, 0x09, 0xcc, 0x00, 0x00, 0x00, 0xbc, 0xf5, 0xff, 0xff,
  0x08, 0x00, 0x00, 0x00, 0x14, 0x00, 0x00, 0x00, 0x01, 0x00, 0x00, 0x00,
  0x80, 0xff, 0xff, 0xff, 0xff, 0xff, 0xff, 0xff, 0x00, 0x00, 0x00, 0x00,
  0x01, 0x00, 0x00, 0x00, 0x33, 0xf7, 0x1d, 0x3d, 0x9d, 0x00, 0x00, 0x00,
  0x73, 0x65, 0x71, 0x75, 0x65, 0x6e, 0x74, 0x69, 0x61, 0x6c, 0x2f, 0x63,
  0x6f, 0x6e, 0x76, 0x31, 0x64, 0x5f, 0x31, 0x2f, 0x52, 0x65, 0x6c, 0x75,
  0x3b, 0x73, 0x65, 0x71, 0x75, 0x65, 0x6e, 0x74, 0x69, 0x61, 0x6c, 0x2f,
  0x63, 0x6f, 0x6e, 0x76, 0x31, 0x64, 0x5f, 0x31, 0x2f, 0x42, 0x69, 0x61,
  0x73, 0x41, 0x64, 0x64, 0x3b, 0x73, 0x65, 0x71, 0x75, 0x65, 0x6e, 0x74,
  0x69, 0x61, 0x6c, 0x2f, 0x63, 0x6f, 0x6e, 0x76, 0x31, 0x64, 0x5f, 0x31,
  0x2f, 0x43, 0x6f, 0x6e, 0x76, 0x31, 0x44, 0x2f, 0x53, 0x71, 0x75, 0x65,
  0x65, 0x7a, 0x65, 0x3b, 0x73, 0x65, 0x71, 0x75, 0x65, 0x6e, 0x74, 0x69,
  0x61, 0x6c, 0x2f, 0x63, 0x6f, 0x6e, 0x76, 0x31, 0x64, 0x5f, 0x31, 0x2f,
  0x42, 0x69, 0x61, 0x73, 0x41, 0x64, 0x64, 0x2f, 0x52, 0x65, 0x61, 0x64,
  0x56, 0x61, 0x72, 0x69, 0x61, 0x62, 0x6c, 0x65, 0x4f, 0x70, 0x3b, 0x73,
  0x65, 0x71, 0x75, 0x65, 0x6e, 0x74, 0x69, 0x61, 0x6c, 0x2f, 0x63, 0x6f,
  0x6e, 0x76, 0x31, 0x64, 0x5f, 0x31, 0x2f, 0x43, 0x6f, 0x6e, 0x76, 0x31,
  0x44, 0x00, 0x00, 0x00, 0x04, 0x00, 0x00, 0x00, 0x01, 0x00, 0x00, 0x00,
  0x01, 0x00, 0x00, 0x00, 0x19, 0x00, 0x00, 0x00, 0x10, 0x00, 0x00, 0x00,
  0xca, 0xf6, 0xff, 0xff, 0x00, 0x00, 0x00, 0x01, 0x14, 0x00, 0x00, 0x00,
  0x34, 0x00, 0x00, 0x00, 0x11, 0x00, 0x00, 0x00, 0x00, 0x00, 0x00, 0x09,
  0x54, 0x00, 0x00, 0x00, 0xb4, 0xf6, 0xff, 0xff, 0x08, 0x00, 0x00, 0x00,
  0x14, 0x00, 0x00, 0x00, 0x01, 0x00, 0x00, 0x00, 0x80, 0xff, 0xff, 0xff,
  0xff, 0xff, 0xff, 0xff, 0x00, 0x00, 0x00, 0x00, 0x01, 0x00, 0x00, 0x00,
  0xd6, 0x6c, 0xce, 0x3d, 0x26, 0x00, 0x00, 0x00, 0x73, 0x65, 0x71, 0x75,
  0x65, 0x6e, 0x74, 0x69, 0x61, 0x6c, 0x2f, 0x63, 0x6f, 0x6e, 0x76, 0x31,
  0x64, 0x5f, 0x31, 0x2f, 0x43, 0x6f, 0x6e, 0x76, 0x31, 0x44, 0x2f, 0x45,
  0x78, 0x70, 0x61, 0x6e, 0x64, 0x44, 0x69, 0x6d, 0x73, 0x31, 0x00, 0x00,
  0x04, 0x00, 0x00, 0x00, 0x01, 0x00, 0x00, 0x00, 0x01, 0x00, 0x00, 0x00,
  0x19, 0x00, 0x00, 0x00, 0x08, 0x00, 0x00, 0x00, 0x4a, 0xf7, 0xff, 0xff,
  0x00, 0x00, 0x00, 0x01, 0x14, 0x00, 0x00, 0x00, 0x30, 0x00, 0x00, 0x00,
  0x10, 0x00, 0x00, 0x00, 0x00, 0x00, 0x00, 0x09, 0x4c, 0x00, 0x00, 0x00,
  0x34, 0xf7, 0xff, 0xff, 0x08, 0x00, 0x00, 0x00, 0x10, 0x00, 0x00, 0x00,
  0x01, 0x00, 0x00, 0x00, 0x80, 0xff, 0xff, 0xff, 0xff, 0xff, 0xff, 0xff,
  0x01, 0x00, 0x00, 0x00, 0xd6, 0x6c, 0xce, 0x3d, 0x20, 0x00, 0x00, 0x00,
  0x73, 0x65, 0x71, 0x75, 0x65, 0x6e, 0x74, 0x69, 0x61, 0x6c, 0x2f, 0x6d,
  0x61, 0x78, 0x5f, 0x70, 0x6f, 0x6f, 0x6c, 0x69, 0x6e, 0x67, 0x31, 0x64,
  0x2f, 0x4d, 0x61, 0x78, 0x50, 0x6f, 0x6f, 0x6c, 0x00, 0x00, 0x00, 0x00,
  0x04, 0x00, 0x00, 0x00, 0x01, 0x00, 0x00, 0x00, 0x19, 0x00, 0x00, 0x00,
  0x01, 0x00, 0x00, 0x00, 0x08, 0x00, 0x00, 0x00, 0xc2, 0xf7, 0xff, 0xff,
  0x00, 0x00, 0x00, 0x01, 0x14, 0x00, 0x00, 0x00, 0x34, 0x00, 0x00, 0x00,
  0x0f, 0x00, 0x00, 0x00, 0x00, 0x00, 0x00, 0x09, 0x54, 0x00, 0x00, 0x00,
  0xac, 0xf7, 0xff, 0xff, 0x08, 0x00, 0x00, 0x00, 0x14, 0x00, 0x00, 0x00,
  0x01, 0x00, 0x00, 0x00, 0x80, 0xff, 0xff, 0xff, 0xff, 0xff, 0xff, 0xff,
  0x00, 0x00, 0x00, 0x00, 0x01, 0x00, 0x00, 0x00, 0xd6, 0x6c, 0xce, 0x3d,
  0x24, 0x00, 0x00, 0x00, 0x73, 0x65, 0x71, 0x75, 0x65, 0x6e, 0x74, 0x69,
  0x61, 0x6c, 0x2f, 0x6d, 0x61, 0x78, 0x5f, 0x70, 0x6f, 0x6f, 0x6c, 0x69,
  0x6e, 0x67, 0x31, 0x64, 0x2f, 0x45, 0x78, 0x70, 0x61, 0x6e, 0x64, 0x44,
  0x69, 0x6d, 0x73, 0x31, 0x00, 0x00, 0x00, 0x00, 0x04, 0x00, 0x00, 0x00,
  0x01, 0x00, 0x00, 0x00, 0x32, 0x00, 0x00, 0x00, 0x01, 0x00, 0x00, 0x00,
  0x08, 0x00, 0x00, 0x00, 0x42, 0xf8, 0xff, 0xff, 0x00, 0x00, 0x00, 0x01,
  0x14, 0x00, 0x00, 0x00, 0x30, 0x00, 0x00, 0x00, 0x0e, 0x00, 0x00, 0x00,
  0x00, 0x00, 0x00, 0x09, 0xbc, 0x00, 0x00, 0x00, 0x2c, 0xf8, 0xff, 0xff,
  0x08, 0x00, 0x00, 0x00, 0x10, 0x00, 0x00, 0x00, 0x01, 0x00, 0x00, 0x00,
  0x80, 0xff, 0xff, 0xff, 0xff, 0xff, 0xff, 0xff, 0x01, 0x00, 0x00, 0x00,
  0xd6, 0x6c, 0xce, 0x3d, 0x93, 0x00, 0x00, 0x00, 0x73, 0x65, 0x71, 0x75,
  0x65, 0x6e, 0x74, 0x69, 0x61, 0x6c, 0x2f, 0x63, 0x6f, 0x6e, 0x76, 0x31,
  0x64, 0x2f, 0x52, 0x65, 0x6c, 0x75, 0x3b, 0x73, 0x65, 0x71, 0x75, 0x65,
  0x6e, 0x74, 0x69, 0x61, 0x6c, 0x2f, 0x63, 0x6f, 0x6e, 0x76, 0x31, 0x64,
  0x2f, 0x42, 0x69, 0x61, 0x73, 0x41, 0x64, 0x64, 0x3b, 0x73, 0x65, 0x71,
  0x75, 0x65, 0x6e, 0x74, 0x69, 0x61, 0x6c, 0x2f, 0x63, 0x6f, 0x6e, 0x76,
  0x31, 0x64, 0x2f, 0x43, 0x6f, 0x6e, 0x76, 0x31, 0x44, 0x2f, 0x53, 0x71,
  0x75, 0x65, 0x65, 0x7a, 0x65, 0x3b, 0x73, 0x65, 0x71, 0x75, 0x65, 0x6e,
  0x74, 0x69, 0x61, 0x6c, 0x2f, 0x63, 0x6f, 0x6e, 0x76, 0x31, 0x64, 0x2f,
  0x42, 0x69, 0x61, 0x73, 0x41, 0x64, 0x64, 0x2f, 0x52, 0x65, 0x61, 0x64,
  0x56, 0x61, 0x72, 0x69, 0x61, 0x62, 0x6c, 0x65, 0x4f, 0x70, 0x3b, 0x73,
  0x65, 0x71, 0x75, 0x65, 0x6e, 0x74, 0x69, 0x61, 0x6c, 0x2f, 0x63, 0x6f,
  0x6e, 0x76, 0x31, 0x64, 0x2f, 0x43, 0x6f, 0x6e, 0x76, 0x31, 0x44, 0x00,
  0x04, 0x00, 0x00, 0x00, 0x01, 0x00, 0x00, 0x00, 0x01, 0x00, 0x00, 0x00,
  0x32, 0x00, 0x00, 0x00, 0x08, 0x00, 0x00, 0x00, 0x2a, 0xf9, 0xff, 0xff,
  0x00, 0x00, 0x00, 0x01, 0x14, 0x00, 0x00, 0x00, 0x34, 0x00, 0x00, 0x00,
  0x0d, 0x00, 0x00, 0x00, 0x00, 0x00, 0x00, 0x09, 0x54, 0x00, 0x00, 0x00,
  0x14, 0xf9, 0xff, 0xff, 0x08, 0x00, 0x00, 0x00, 0x14, 0x00, 0x00, 0x00,
  0x01, 0x00, 0x00, 0x00, 0x02, 0x00, 0x00, 0x00, 0x00, 0x00, 0x00, 0x00,
  0x00, 0x00, 0x00, 0x00, 0x01, 0x00, 0x00, 0x00, 0xbc, 0xa3, 0x58, 0x3d,
  0x24, 0x00, 0x00, 0x00, 0x73, 0x65, 0x71, 0x75, 0x65, 0x6e, 0x74, 0x69,
  0x61, 0x6c, 0x2f, 0x63, 0x6f, 0x6e, 0x76, 0x31, 0x64, 0x2f, 0x43, 0x6f,
  0x6e, 0x76, 0x31, 0x44, 0x2f, 0x45, 0x78, 0x70, 0x61, 0x6e, 0x64, 0x44,
  0x69, 0x6d, 0x73, 0x31, 0x00, 0x00, 0x00, 0x00, 0x04, 0x00, 0x00, 0x00,
  0x01, 0x00, 0x00, 0x00, 0x01, 0x00, 0x00, 0x00, 0x32, 0x00, 0x00, 0x00,
  0x0d, 0x00, 0x00, 0x00, 0xaa, 0xf9, 0xff, 0xff, 0x00, 0x00, 0x00, 0x01,
  0x14, 0x00, 0x00, 0x00, 0x88, 0x00, 0x00, 0x00, 0x0c, 0x00, 0x00, 0x00,
  0x00, 0x00, 0x00, 0x09, 0x9c, 0x00, 0x00, 0x00, 0x94, 0xf9, 0xff, 0xff,
  0x08, 0x00, 0x00, 0x00, 0x4c, 0x00, 0x00, 0x00, 0x08, 0x00, 0x00, 0x00,
  0x00, 0x00, 0x00, 0x00, 0x00, 0x00, 0x00, 0x00, 0x00, 0x00, 0x00, 0x00,
  0x00, 0x00, 0x00, 0x00, 0x00, 0x00, 0x00, 0x00, 0x00, 0x00, 0x00, 0x00,
  0x00, 0x00, 0x00, 0x00, 0x00, 0x00, 0x00, 0x00, 0x00, 0x00, 0x00, 0x00,
  0x00, 0x00, 0x00, 0x00, 0x00, 0x00, 0x00, 0x00, 0x00, 0x00, 0x00, 0x00,
  0x00, 0x00, 0x00, 0x00, 0x00, 0x00, 0x00, 0x00, 0x00, 0x00, 0x00, 0x00,
  0x00, 0x00, 0x00, 0x00, 0x00, 0x00, 0x00, 0x00, 0x08, 0x00, 0x00, 0x00,
  0x68, 0x4c, 0x28, 0x3c, 0xcb, 0x8a, 0x14, 0x3c, 0x30, 0x9f, 0x9b, 0x3c,
  0x57, 0xae, 0xfe, 0x3c, 0xce, 0x9f, 0x28, 0x3c, 0x26, 0xa5, 0xf6, 0x3b,
  0x1b, 0x21, 0xcf, 0x3b, 0x20, 0xd6, 0x87, 0x3c, 0x18, 0x00, 0x00, 0x00,
  0x73, 0x65, 0x71, 0x75, 0x65, 0x6e, 0x74, 0x69, 0x61, 0x6c, 0x2f, 0x63,
  0x6f, 0x6e, 0x76, 0x31, 0x64, 0x2f, 0x43, 0x6f, 0x6e, 0x76, 0x31, 0x44,
  0x00, 0x00, 0x00, 0x00, 0x04, 0x00, 0x00, 0x00, 0x08, 0x00, 0x00, 0x00,
  0x01, 0x00, 0x00, 0x00, 0x03, 0x00, 0x00, 0x00, 0x0d, 0x00, 0x00, 0x00,
  0x72, 0xfa, 0xff, 0xff, 0x00, 0x00, 0x00, 0x01, 0x14, 0x00, 0x00, 0x00,
  0x84, 0x00, 0x00, 0x00, 0x0b, 0x00, 0x00, 0x00, 0x00, 0x00, 0x00, 0x02,
  0xa8, 0x00, 0x00, 0x00, 0x5c, 0xfa, 0xff, 0xff, 0x08, 0x00, 0x00, 0x00,
  0x48, 0x00, 0x00, 0x00, 0x08, 0x00, 0x00, 0x00, 0x00, 0x00, 0x00, 0x00,
  0x00, 0x00, 0x00, 0x00, 0x00, 0x00, 0x00, 0x00, 0x00, 0x00, 0x00, 0x00,
  0x00, 0x00, 0x00, 0x00, 0x00, 0x00, 0x00, 0x00, 0x00, 0x00, 0x00, 0x00,
  0x00, 0x00, 0x00, 0x00, 0x00, 0x00, 0x00, 0x00, 0x00, 0x00, 0x00, 0x00,
  0x00, 0x00, 0x00, 0x00, 0x00, 0x00, 0x00, 0x00, 0x00, 0x00, 0x00, 0x00,
  0x00, 0x00, 0x00, 0x00, 0x00, 0x00, 0x00, 0x00, 0x00, 0x00, 0x00, 0x00,
  0x08, 0x00, 0x00, 0x00, 0x1c, 0x6c, 0x0e, 0x3a, 0x39, 0x68, 0xfb, 0x39,
  0xd9, 0xb1, 0x83, 0x3a, 0xfd, 0x85, 0xd7, 0x3a, 0xaf, 0xb2, 0x0e, 0x3a,
  0x18, 0xb9, 0xd0, 0x39, 0x69, 0x48, 0xaf, 0x39, 0x18, 0xe7, 0x65, 0x3a,
  0x28, 0x00, 0x00, 0x00, 0x73, 0x65, 0x71, 0x75, 0x65, 0x6e, 0x74, 0x69,
  0x61, 0x6c, 0x2f, 0x63, 0x6f, 0x6e, 0x76, 0x31, 0x64, 0x2f, 0x42, 0x69,
  0x61, 0x73, 0x41, 0x64, 0x64, 0x2f, 0x52, 0x65, 0x61, 0x64, 0x56, 0x61,
  0x72, 0x69, 0x61, 0x62, 0x6c, 0x65, 0x4f, 0x70, 0x00, 0x00, 0x00, 0x00,
  0x01, 0x00, 0x00, 0x00, 0x08, 0x00, 0x00, 0x00, 0x3a, 0xfb, 0xff, 0xff,
  0x00, 0x00, 0x00, 0x01, 0x14, 0x00, 0x00, 0x00, 0xe8, 0x00, 0x00, 0x00,
  0x0a, 0x00, 0x00, 0x00, 0x00, 0x00, 0x00, 0x09, 0xfc, 0x00, 0x00, 0x00,
  0x24, 0xfb, 0xff, 0xff, 0x08, 0x00, 0x00, 0x00, 0x8c, 0x00, 0x00, 0x00,
  0x10, 0x00, 0x00, 0x00, 0x00, 0x00, 0x00, 0x00, 0x00, 0x00, 0x00, 0x00,
  0x00, 0x00, 0x00, 0x00, 0x00, 0x00, 0x00, 0x00, 0x00, 0x00, 0x00, 0x00,
  0x00, 0x00, 0x00, 0x00, 0x00, 0x00, 0x00, 0x00, 0x00, 0x00, 0x00, 0x00,
  0x00, 0x00, 0x00, 0x00, 0x00, 0x00, 0x00, 0x00, 0x00, 0x00, 0x00, 0x00,
  0x00, 0x00, 0x00, 0x00, 0x00, 0x00, 0x00, 0x00, 0x00, 0x00, 0x00, 0x00,
  0x00, 0x00, 0x00, 0x00, 0x00, 0x00, 0x00, 0x00, 0x00, 0x00, 0x00, 0x00,
  0x00, 0x00, 0x00, 0x00, 0x00, 0x00, 0x00, 0x00, 0x00, 0x00, 0x00, 0x00,
  0x00, 0x00, 0x00, 0x00, 0x00, 0x00, 0x00, 0x00, 0x00, 0x00, 0x00, 0x00,
  0x00, 0x00, 0x00, 0x00, 0x00, 0x00, 0x00, 0x00, 0x00, 0x00, 0x00, 0x00,
  0x00, 0x00, 0x00, 0x00, 0x00, 0x00, 0x00, 0x00, 0x00, 0x00, 0x00, 0x00,
  0x00, 0x00, 0x00, 0x00, 0x00, 0x00, 0x00, 0x00, 0x00, 0x00, 0x00, 0x00,
  0x00, 0x00, 0x00, 0x00, 0x10, 0x00, 0x00, 0x00, 0xb1, 0xd3, 0x34, 0x3d,
  0x39, 0xcb, 0x2a, 0x3c, 0xa6, 0xdc, 0x41, 0x3d, 0x54, 0x13, 0x8f, 0x3c,
  0x0f, 0x55, 0x52, 0x3d, 0x84, 0x6d, 0x2d, 0x3d, 0x63, 0x61, 0xa2, 0x3c,
  0x85, 0x09, 0xce, 0x3c, 0x0b, 0x12, 0x94, 0x3b, 0xd3, 0x83, 0x9d, 0x3c,
  0xbb, 0x5f, 0xf5, 0x3c, 0xd8, 0x4b, 0x3b, 0x3c, 0x7a, 0x2c, 0x3c, 0x3c,
  0x88, 0x1b, 0x28, 0x3c, 0x36, 0x2d, 0xdc, 0x3c, 0xde, 0xc2, 0x41, 0x3d,
  0x1a, 0x00, 0x00, 0x00, 0x73, 0x65, 0x71, 0x75, 0x65, 0x6e, 0x74, 0x69,
  0x61, 0x6c, 0x2f, 0x63, 0x6f, 0x6e, 0x76, 0x31, 0x64, 0x5f, 0x31, 0x2f,
  0x43, 0x6f, 0x6e, 0x76, 0x31, 0x44, 0x00, 0x00, 0x04, 0x00, 0x00, 0x00,
  0x10, 0x00, 0x00, 0x00, 0x01, 0x00, 0x00, 0x00, 0x03, 0x00, 0x00, 0x00,
  0x08, 0x00, 0x00, 0x00, 0x62, 0xfc, 0xff, 0xff, 0x00, 0x00, 0x00, 0x01,
  0x14, 0x00, 0x00, 0x00, 0xe4, 0x00, 0x00, 0x00, 0x09, 0x00, 0x00, 0x00,
  0x00, 0x00, 0x00, 0x02, 0x08, 0x01, 0x00, 0x00, 0x4c, 0xfc, 0xff, 0xff,
  0x08, 0x00, 0x00, 0x00, 0x88, 0x00, 0x00, 0x00, 0x10, 0x00, 0x00, 0x00,
  0x00, 0x00, 0x00, 0x00, 0x00, 0x00, 0x00, 0x00, 0x00, 0x00, 0x00, 0x00,
  0x00, 0x00, 0x00, 0x00, 0x00, 0x00, 0x00, 0x00, 0x00, 0x00, 0x00, 0x00,
  0x00, 0x00, 0x00, 0x00, 0x00, 0x00, 0x00, 0x00, 0x00, 0x00, 0x00, 0x00,
  0x00, 0x00, 0x00, 0x00, 0x00, 0x00, 0x00, 0x00, 0x00, 0x00, 0x00, 0x00,
  0x00, 0x00, 0x00, 0x00, 0x00, 0x00, 0x00, 0x00, 0x00, 0x00, 0x00, 0x00,
  0x00, 0x00, 0x00, 0x00, 0x00, 0x00, 0x00, 0x00, 0x00, 0x00, 0x00, 0x00,
  0x00, 0x00, 0x00, 0x00, 0x00, 0x00, 0x00, 0x00, 0x00, 0x00, 0x00, 0x00,
  0x00, 0x00, 0x00, 0x00, 0x00, 0x00, 0x00, 0x00, 0x00, 0x00, 0x00, 0x00,
  0x00, 0x00, 0x00, 0x00, 0x00, 0x00, 0x00, 0x00, 0x00, 0x00, 0x00, 0x00,
  0x00, 0x00, 0x00, 0x00, 0x00, 0x00, 0x00, 0x00, 0x00, 0x00, 0x00, 0x00,
  0x00, 0x00, 0x00, 0x00, 0x00, 0x00, 0x00, 0x00, 0x10, 0x00, 0x00, 0x00,
  0x39, 0xcf, 0x91, 0x3b, 0x24, 0xb8, 0x89, 0x3a, 0xf9, 0x51, 0x9c, 0x3b,
  0xc3, 0xbc, 0xe6, 0x3a, 0xde, 0x99, 0xa9, 0x3b, 0xdb, 0xd7, 0x8b, 0x3b,
  0x66, 0xef, 0x02, 0x3b, 0x41, 0x23, 0x26, 0x3b, 0xf0, 0xca, 0xee, 0x39,
  0x16, 0x06, 0xfe, 0x3a, 0x5a, 0xdb, 0x45, 0x3b, 0xa8, 0x06, 0x97, 0x3a,
  0xca, 0xbb, 0x97, 0x3a, 0xa0, 0x8d, 0x87, 0x3a, 0xfd, 0x89, 0x31, 0x3b,
  0x2f, 0x3d, 0x9c, 0x3b, 0x2a, 0x00, 0x00, 0x00, 0x73, 0x65, 0x71, 0x75,
  0x65, 0x6e, 0x74, 0x69, 0x61, 0x6c, 0x2f, 0x63, 0x6f, 0x6e, 0x76, 0x31,
  0x64, 0x5f, 0x31, 0x2f, 0x42, 0x69, 0x61, 0x73, 0x41, 0x64, 0x64, 0x2f,
  0x52, 0x65, 0x61, 0x64, 0x56, 0x61, 0x72, 0x69, 0x61, 0x62, 0x6c, 0x65,
  0x4f, 0x70, 0x00, 0x00, 0x01, 0x00, 0x00, 0x00, 0x10, 0x00, 0x00, 0x00,
  0x8a, 0xfd, 0xff, 0xff, 0x00, 0x00, 0x00, 0x01, 0x14, 0x00, 0x00, 0x00,
  0x30, 0x00, 0x00, 0x00, 0x08, 0x00, 0x00, 0x00, 0x00, 0x00, 0x00, 0x09,
  0x44, 0x00, 0x00, 0x00, 0x74, 0xfd, 0xff, 0xff, 0x08, 0x00, 0x00, 0x00,
  0x10, 0x00, 0x00, 0x00, 0x01, 0x00, 0x00, 0x00, 0x00, 0x00, 0x00, 0x00,
  0x00, 0x00, 0x00, 0x00, 0x01, 0x00, 0x00, 0x00, 0x6d, 0xc6, 0xaf, 0x3c,
  0x18, 0x00, 0x00, 0x00, 0x73, 0x65, 0x71, 0x75, 0x65, 0x6e, 0x74, 0x69,
  0x61, 0x6c, 0x2f, 0x79, 0x5f, 0x70, 0x72, 0x65, 0x64, 0x2f, 0x4d, 0x61,
  0x74, 0x4d, 0x75, 0x6c, 0x00, 0x00, 0x00, 0x00, 0x02, 0x00, 0x00, 0x00,
  0x05, 0x00, 0x00, 0x00, 0xd0, 0x00, 0x00, 0x00, 0xf2, 0xfd, 0xff, 0xff,
  0x00, 0x00, 0x00, 0x01, 0x14, 0x00, 0x00, 0x00, 0x34, 0x00, 0x00, 0x00,
  0x07, 0x00, 0x00, 0x00, 0x00, 0x00, 0x00, 0x02, 0x58, 0x00, 0x00, 0x00,
  0xdc, 0xfd, 0xff, 0xff, 0x08, 0x00, 0x00, 0x00, 0x14, 0x00, 0x00, 0x00,
  0x01, 0x00, 0x00, 0x00, 0x00, 0x00, 0x00, 0x00, 0x00, 0x00, 0x00, 0x00,
  0x00, 0x00, 0x00, 0x00, 0x01, 0x00, 0x00, 0x00, 0xd9, 0xec, 0x58, 0x3a,
  0x28, 0x00, 0x00, 0x00, 0x73, 0x65, 0x71, 0x75, 0x65, 0x6e, 0x74, 0x69,
  0x61, 0x6c, 0x2f, 0x79, 0x5f, 0x70, 0x72, 0x65, 0x64, 0x2f, 0x42, 0x69,
  0x61, 0x73, 0x41, 0x64, 0x64, 0x2f, 0x52, 0x65, 0x61, 0x64, 0x56, 0x61,
  0x72, 0x69, 0x61, 0x62, 0x6c, 0x65, 0x4f, 0x70, 0x00, 0x00, 0x00, 0x00,
  0x01, 0x00, 0x00, 0x00, 0x05, 0x00, 0x00, 0x00, 0x6a, 0xfe, 0xff, 0xff,
  0x00, 0x00, 0x00, 0x01, 0x14, 0x00, 0x00, 0x00, 0x14, 0x00, 0x00, 0x00,
  0x06, 0x00, 0x00, 0x00, 0x00, 0x00, 0x00, 0x02, 0x28, 0x00, 0x00, 0x00,
  0xc0, 0xfe, 0xff, 0xff, 0x18, 0x00, 0x00, 0x00, 0x73, 0x65, 0x71, 0x75,
  0x65, 0x6e, 0x74, 0x69, 0x61, 0x6c, 0x2f, 0x66, 0x6c, 0x61, 0x74, 0x74,
  0x65, 0x6e, 0x2f, 0x43, 0x6f, 0x6e, 0x73, 0x74, 0x00, 0x00, 0x00, 0x00,
  0x01, 0x00, 0x00, 0x00, 0x02, 0x00, 0x00, 0x00, 0xb2, 0xfe, 0xff, 0xff,
  0x00, 0x00, 0x00, 0x01, 0x14, 0x00, 0x00, 0x00, 0x14, 0x00, 0x00, 0x00,
  0x05, 0x00, 0x00, 0x00, 0x00, 0x00, 0x00, 0x02, 0x34, 0x00, 0x00, 0x00,
  0x08, 0xff, 0xff, 0xff, 0x25, 0x00, 0x00, 0x00, 0x73, 0x65, 0x71, 0x75,
  0x65, 0x6e, 0x74, 0x69, 0x61, 0x6c, 0x2f, 0x6d, 0x61, 0x78, 0x5f, 0x70,
  0x6f, 0x6f, 0x6c, 0x69, 0x6e, 0x67, 0x31, 0x64, 0x5f, 0x31, 0x2f, 0x45,
  0x78, 0x70, 0x61, 0x6e, 0x64, 0x44, 0x69, 0x6d, 0x73, 0x00, 0x00, 0x00,
  0x01, 0x00, 0x00, 0x00, 0x04, 0x00, 0x00, 0x00, 0x06, 0xff, 0xff, 0xff,
  0x00, 0x00, 0x00, 0x01, 0x14, 0x00, 0x00, 0x00, 0x14, 0x00, 0x00, 0x00,
  0x04, 0x00, 0x00, 0x00, 0x00, 0x00, 0x00, 0x02, 0x34, 0x00, 0x00, 0x00,
  0x5c, 0xff, 0xff, 0xff, 0x25, 0x00, 0x00, 0x00, 0x73, 0x65, 0x71, 0x75,
  0x65, 0x6e, 0x74, 0x69, 0x61, 0x6c, 0x2f, 0x63, 0x6f, 0x6e, 0x76, 0x31,
  0x64, 0x5f, 0x31, 0x2f, 0x43, 0x6f, 0x6e, 0x76, 0x31, 0x44, 0x2f, 0x45,
  0x78, 0x70, 0x61, 0x6e, 0x64, 0x44, 0x69, 0x6d, 0x73, 0x00, 0x00, 0x00,
  0x01, 0x00, 0x00, 0x00, 0x04, 0x00, 0x00, 0x00, 0x5a, 0xff, 0xff, 0xff,
  0x00, 0x00, 0x00, 0x01, 0x14, 0x00, 0x00, 0x00, 0x14, 0x00, 0x00, 0x00,
  0x03, 0x00, 0x00, 0x00, 0x00, 0x00, 0x00, 0x02, 0x30, 0x00, 0x00, 0x00,
  0xb0, 0xff, 0xff, 0xff, 0x23, 0x00, 0x00, 0x00, 0x73, 0x65, 0x71, 0x75,
  0x65, 0x6e, 0x74, 0x69, 0x61, 0x6c, 0x2f, 0x6d, 0x61, 0x78, 0x5f, 0x70,
  0x6f, 0x6f, 0x6c, 0x69, 0x6e, 0x67, 0x31, 0x64, 0x2f, 0x45, 0x78, 0x70,
  0x61, 0x6e, 0x64, 0x44, 0x69, 0x6d, 0x73, 0x00, 0x01, 0x00, 0x00, 0x00,
  0x04, 0x00, 0x00, 0x00, 0xaa, 0xff, 0xff, 0xff, 0x00, 0x00, 0x00, 0x01,
  0x18, 0x00, 0x00, 0x00, 0x18, 0x00, 0x00, 0x00, 0x02, 0x00, 0x00, 0x00,
  0x00, 0x00, 0x00, 0x02, 0x34, 0x00, 0x00, 0x00, 0x04, 0x00, 0x04, 0x00,
  0x04, 0x00, 0x00, 0x00, 0x23, 0x00, 0x00, 0x00, 0x73, 0x65, 0x71, 0x75,
  0x65, 0x6e, 0x74, 0x69, 0x61, 0x6c, 0x2f, 0x63, 0x6f, 0x6e, 0x76, 0x31,
  0x64, 0x2f, 0x43, 0x6f, 0x6e, 0x76, 0x31, 0x44, 0x2f, 0x45, 0x78, 0x70,
  0x61, 0x6e, 0x64, 0x44, 0x69, 0x6d, 0x73, 0x00, 0x01, 0x00, 0x00, 0x00,
  0x04, 0x00, 0x00, 0x00, 0x00, 0x00, 0x16, 0x00, 0x1c, 0x00, 0x18, 0x00,
  0x17, 0x00, 0x10, 0x00, 0x0c, 0x00, 0x08, 0x00, 0x00, 0x00, 0x00, 0x00,
  0x00, 0x00, 0x07, 0x00, 0x16, 0x00, 0x00, 0x00, 0x00, 0x00, 0x00, 0x01,
  0x20, 0x00, 0x00, 0x00, 0x3c, 0x00, 0x00, 0x00, 0x01, 0x00, 0x00, 0x00,
  0x00, 0x00, 0x00, 0x09, 0x48, 0x00, 0x00, 0x00, 0x0c, 0x00, 0x0c, 0x00,
  0x00, 0x00, 0x00, 0x00, 0x08, 0x00, 0x04, 0x00, 0x0c, 0x00, 0x00, 0x00,
  0x08, 0x00, 0x00, 0x00, 0x10, 0x00, 0x00, 0x00, 0x01, 0x00, 0x00, 0x00,
  0x02, 0x00, 0x00, 0x00, 0x00, 0x00, 0x00, 0x00, 0x01, 0x00, 0x00, 0x00,
  0xbc, 0xa3, 0x58, 0x3d, 0x13, 0x00, 0x00, 0x00, 0x73, 0x65, 0x72, 0x76,
  0x69, 0x6e, 0x67, 0x5f, 0x64, 0x65, 0x66, 0x61, 0x75, 0x6c, 0x74, 0x5f,
  0x78, 0x3a, 0x30, 0x00, 0x02, 0x00, 0x00, 0x00, 0x01, 0x00, 0x00, 0x00,
  0x8a, 0x02, 0x00, 0x00, 0x05, 0x00, 0x00, 0x00, 0x6c, 0x00, 0x00, 0x00,
  0x4c, 0x00, 0x00, 0x00, 0x2c, 0x00, 0x00, 0x00, 0x18, 0x00, 0x00, 0x00,
  0x04, 0x00, 0x00, 0x00, 0xd0, 0xff, 0xff, 0xff, 0x19, 0x00, 0x00, 0x00,
  0x02, 0x00, 0x00, 0x00, 0x00, 0x00, 0x00, 0x19, 0xe0, 0xff, 0xff, 0xff,
  0x09, 0x00, 0x00, 0x00, 0x04, 0x00, 0x00, 0x00, 0x00, 0x00, 0x00, 0x09,
  0xf0, 0xff, 0xff, 0xff, 0x11, 0x00, 0x00, 0x00, 0x02, 0x00, 0x00, 0x00,
  0x00, 0x00, 0x00, 0x11, 0x0c, 0x00, 0x10, 0x00, 0x0f, 0x00, 0x00, 0x00,
  0x08, 0x00, 0x04, 0x00, 0x0c, 0x00, 0x00, 0x00, 0x03, 0x00, 0x00, 0x00,
  0x03, 0x00, 0x00, 0x00, 0x00, 0x00, 0x00, 0x03, 0x0c, 0x00, 0x0c, 0x00,
  0x0b, 0x00, 0x00, 0x00, 0x00, 0x00, 0x04, 0x00, 0x0c, 0x00, 0x00, 0x00,
  0x16, 0x00, 0x00, 0x00, 0x00, 0x00, 0x00, 0x16
};
unsigned int tflite_learn_13_len = 6872;

#endif // _EI_CLASSIFIER_TFLITE_LEARN_13_H_

