/* Generated by Edge Impulse
 *
 * Permission is hereby granted, free of charge, to any person obtaining a copy
 * of this software and associated documentation files (the "Software"), to deal
 * in the Software without restriction, including without limitation the rights
 * to use, copy, modify, merge, publish, distribute, sublicense, and/or sell
 * copies of the Software, and to permit persons to whom the Software is
 * furnished to do so, subject to the following conditions:
 *
 * The above copyright notice and this permission notice shall be included in
 * all copies or substantial portions of the Software.
 *
 * THE SOFTWARE IS PROVIDED "AS IS", WITHOUT WARRANTY OF ANY KIND, EXPRESS OR
 * IMPLIED, INCLUDING BUT NOT LIMITED TO THE WARRANTIES OF MERCHANTABILITY,
 * FITNESS FOR A PARTICULAR PURPOSE AND NONINFRINGEMENT. IN NO EVENT SHALL THE
 * AUTHORS OR COPYRIGHT HOLDERS BE LIABLE FOR ANY CLAIM, DAMAGES OR OTHER
 * LIABILITY, WHETHER IN AN ACTION OF CONTRACT, TORT OR OTHERWISE, ARISING FROM,
 * OUT OF OR IN CONNECTION WITH THE SOFTWARE OR THE USE OR OTHER DEALINGS IN THE
 * SOFTWARE.
 */

#ifndef _EI_CLASSIFIER_TFLITE_LEARN_13_H_
#define _EI_CLASSIFIER_TFLITE_LEARN_13_H_

#define EI_CLASSIFIER_TFLITE_LEARN_13_ARENA_SIZE     6265
const size_t tflite_learn_13_arena_size = 6265;

#ifdef EI_CLASSIFIER_TFLITE_ARENA_SIZE
#if EI_CLASSIFIER_TFLITE_ARENA_SIZE < EI_CLASSIFIER_TFLITE_LEARN_13_ARENA_SIZE
#undef EI_CLASSIFIER_TFLITE_ARENA_SIZE
#define EI_CLASSIFIER_TFLITE_ARENA_SIZE EI_CLASSIFIER_TFLITE_LEARN_13_ARENA_SIZE
#endif // #if EI_CLASSIFIER_TFLITE_ARENA_SIZE < EI_CLASSIFIER_TFLITE_LEARN_13_ARENA_SIZE
#else
#define EI_CLASSIFIER_TFLITE_ARENA_SIZE EI_CLASSIFIER_TFLITE_LEARN_13_ARENA_SIZE
#endif // #ifdef EI_CLASSIFIER_TFLITE_ARENA_SIZE

#if defined __GNUC__
#define ALIGN(X) __attribute__((aligned(X)))
#elif defined _MSC_VER
#define ALIGN(X) __declspec(align(X))
#elif defined __TASKING__
#define ALIGN(X) __align(X)
#else
#define ALIGN(X)
#endif
ALIGN(16) const unsigned char tflite_learn_13[] = {
  0x20, 0x00, 0x00, 0x00, 0x54, 0x46, 0x4c, 0x33, 0x00, 0x00, 0x00, 0x00,
  0x14, 0x00, 0x20, 0x00, 0x1c, 0x00, 0x18, 0x00, 0x14, 0x00, 0x10, 0x00,
  0x0c, 0x00, 0x00, 0x00, 0x08, 0x00, 0x04, 0x00, 0x14, 0x00, 0x00, 0x00,
  0x1c, 0x00, 0x00, 0x00, 0x8c, 0x00, 0x00, 0x00, 0xe4, 0x00, 0x00, 0x00,
  0x08, 0x0a, 0x00, 0x00, 0x18, 0x0a, 0x00, 0x00, 0x24, 0x1a, 0x00, 0x00,
  0x03, 0x00, 0x00, 0x00, 0x01, 0x00, 0x00, 0x00, 0x10, 0x00, 0x00, 0x00,
  0x00, 0x00, 0x0a, 0x00, 0x10, 0x00, 0x0c, 0x00, 0x08, 0x00, 0x04, 0x00,
  0x0a, 0x00, 0x00, 0x00, 0x0c, 0x00, 0x00, 0x00, 0x1c, 0x00, 0x00, 0x00,
  0x3c, 0x00, 0x00, 0x00, 0x0f, 0x00, 0x00, 0x00, 0x73, 0x65, 0x72, 0x76,
  0x69, 0x6e, 0x67, 0x5f, 0x64, 0x65, 0x66, 0x61, 0x75, 0x6c, 0x74, 0x00,
  0x01, 0x00, 0x00, 0x00, 0x04, 0x00, 0x00, 0x00, 0x9c, 0xff, 0xff, 0xff,
  0x16, 0x00, 0x00, 0x00, 0x04, 0x00, 0x00, 0x00, 0x08, 0x00, 0x00, 0x00,
  0x6f, 0x75, 0x74, 0x70, 0x75, 0x74, 0x5f, 0x30, 0x00, 0x00, 0x00, 0x00,
  0x01, 0x00, 0x00, 0x00, 0x04, 0x00, 0x00, 0x00, 0xd2, 0xf5, 0xff, 0xff,
  0x04, 0x00, 0x00, 0x00, 0x01, 0x00, 0x00, 0x00, 0x78, 0x00, 0x00, 0x00,
  0x02, 0x00, 0x00, 0x00, 0x34, 0x00, 0x00, 0x00, 0x04, 0x00, 0x00, 0x00,
  0xdc, 0xff, 0xff, 0xff, 0x19, 0x00, 0x00, 0x00, 0x04, 0x00, 0x00, 0x00,
  0x13, 0x00, 0x00, 0x00, 0x43, 0x4f, 0x4e, 0x56, 0x45, 0x52, 0x53, 0x49,
  0x4f, 0x4e, 0x5f, 0x4d, 0x45, 0x54, 0x41, 0x44, 0x41, 0x54, 0x41, 0x00,
  0x08, 0x00, 0x0c, 0x00, 0x08, 0x00, 0x04, 0x00, 0x08, 0x00, 0x00, 0x00,
  0x18, 0x00, 0x00, 0x00, 0x04, 0x00, 0x00, 0x00, 0x13, 0x00, 0x00, 0x00,
  0x6d, 0x69, 0x6e, 0x5f, 0x72, 0x75, 0x6e, 0x74, 0x69, 0x6d, 0x65, 0x5f,
  0x76, 0x65, 0x72, 0x73, 0x69, 0x6f, 0x6e, 0x00, 0x1a, 0x00, 0x00, 0x00,
  0x20, 0x09, 0x00, 0x00, 0x18, 0x09, 0x00, 0x00, 0xf8, 0x08, 0x00, 0x00,
  0xd8, 0x08, 0x00, 0x00, 0xb8, 0x08, 0x00, 0x00, 0x98, 0x08, 0x00, 0x00,
  0x80, 0x08, 0x00, 0x00, 0x5c, 0x08, 0x00, 0x00, 0x3c, 0x04, 0x00, 0x00,
  0xec, 0x03, 0x00, 0x00, 0x5c, 0x02, 0x00, 0x00, 0x2c, 0x02, 0x00, 0x00,
  0xe4, 0x00, 0x00, 0x00, 0xdc, 0x00, 0x00, 0x00, 0xd4, 0x00, 0x00, 0x00,
  0xcc, 0x00, 0x00, 0x00, 0xc4, 0x00, 0x00, 0x00, 0xbc, 0x00, 0x00, 0x00,
  0xb4, 0x00, 0x00, 0x00, 0xac, 0x00, 0x00, 0x00, 0xa4, 0x00, 0x00, 0x00,
  0x9c, 0x00, 0x00, 0x00, 0x94, 0x00, 0x00, 0x00, 0x8c, 0x00, 0x00, 0x00,
  0x6c, 0x00, 0x00, 0x00, 0x04, 0x00, 0x00, 0x00, 0xaa, 0xf6, 0xff, 0xff,
  0x04, 0x00, 0x00, 0x00, 0x58, 0x00, 0x00, 0x00, 0x0c, 0x00, 0x00, 0x00,
  0x08, 0x00, 0x0e, 0x00, 0x08, 0x00, 0x04, 0x00, 0x08, 0x00, 0x00, 0x00,
  0x10, 0x00, 0x00, 0x00, 0x28, 0x00, 0x00, 0x00, 0x00, 0x00, 0x06, 0x00,
  0x08, 0x00, 0x04, 0x00, 0x06, 0x00, 0x00, 0x00, 0x04, 0x00, 0x00, 0x00,
  0x01, 0x00, 0x00, 0x00, 0xeb, 0x03, 0x00, 0x00, 0x00, 0x00, 0x0a, 0x00,
  0x10, 0x00, 0x0c, 0x00, 0x08, 0x00, 0x04, 0x00, 0x0a, 0x00, 0x00, 0x00,
  0x03, 0x00, 0x00, 0x00, 0x02, 0x00, 0x00, 0x00, 0x04, 0x00, 0x00, 0x00,
  0x06, 0x00, 0x00, 0x00, 0x32, 0x2e, 0x31, 0x31, 0x2e, 0x31, 0x00, 0x00,
  0x0e, 0xf7, 0xff, 0xff, 0x04, 0x00, 0x00, 0x00, 0x10, 0x00, 0x00, 0x00,
  0x31, 0x2e, 0x31, 0x34, 0x2e, 0x30, 0x00, 0x00, 0x00, 0x00, 0x00, 0x00,
  0x00, 0x00, 0x00, 0x00, 0x5c, 0xe8, 0xff, 0xff, 0x60, 0xe8, 0xff, 0xff,
  0x64, 0xe8, 0xff, 0xff, 0x68, 0xe8, 0xff, 0xff, 0x6c, 0xe8, 0xff, 0xff,
  0x70, 0xe8, 0xff, 0xff, 0x74, 0xe8, 0xff, 0xff, 0x78, 0xe8, 0xff, 0xff,
  0x7c, 0xe8, 0xff, 0xff, 0x80, 0xe8, 0xff, 0xff, 0x84, 0xe8, 0xff, 0xff,
  0x56, 0xf7, 0xff, 0xff, 0x04, 0x00, 0x00, 0x00, 0x38, 0x01, 0x00, 0x00,
  0x8e, 0x81, 0x16, 0x3a, 0x3b, 0x13, 0xe7, 0xf3, 0x11, 0x10, 0x1b, 0x11,
  0x0a, 0x9c, 0xbc, 0xe9, 0x05, 0x22, 0x07, 0xee, 0x0a, 0x09, 0xea, 0xe8,
  0x1c, 0x0d, 0xac, 0xa8, 0x0b, 0xe7, 0x15, 0x05, 0x1b, 0xfd, 0xb3, 0x23,
  0x0a, 0x12, 0x09, 0x81, 0xfa, 0x00, 0x10, 0xea, 0x23, 0x03, 0x0b, 0xd6,
  0xf0, 0xf6, 0xfc, 0xfe, 0xcf, 0x5f, 0x1b, 0xf6, 0x00, 0x0b, 0x02, 0x14,
  0x07, 0x0a, 0x13, 0xf9, 0xfd, 0x8f, 0xeb, 0xf1, 0xfd, 0x14, 0x06, 0x00,
  0x06, 0xfe, 0x03, 0x02, 0x05, 0x00, 0x84, 0x06, 0x9c, 0xdc, 0x4d, 0x51,
  0xf1, 0xea, 0xd0, 0x1a, 0x31, 0x0d, 0x00, 0xe0, 0x30, 0x19, 0x18, 0x33,
  0xf3, 0xae, 0xea, 0x27, 0x0c, 0x0d, 0x01, 0x00, 0xba, 0x3a, 0x25, 0x48,
  0x74, 0xdf, 0x81, 0xd4, 0xf8, 0xf0, 0xe7, 0xf6, 0x07, 0x81, 0x09, 0x09,
  0xfe, 0xef, 0x01, 0xff, 0xfc, 0xf3, 0x05, 0xf6, 0xfd, 0xff, 0x06, 0xe8,
  0xf7, 0xfb, 0x08, 0x04, 0x03, 0x07, 0x03, 0xfa, 0xff, 0x00, 0xf7, 0x7f,
  0x0f, 0xed, 0xf6, 0x15, 0x07, 0xff, 0x00, 0xfe, 0x02, 0x0b, 0xf9, 0xfa,
  0x46, 0x9f, 0x63, 0x13, 0x03, 0x15, 0xbd, 0x11, 0x23, 0xe9, 0x10, 0x0c,
  0xfb, 0x22, 0xbd, 0x64, 0x04, 0x04, 0x06, 0xd5, 0xf9, 0x1e, 0x01, 0xe7,
  0x17, 0xf1, 0x05, 0x8d, 0x7f, 0x03, 0x0a, 0x0d, 0xf6, 0xee, 0x21, 0xfc,
  0x05, 0x19, 0x01, 0x62, 0x27, 0xb5, 0x36, 0xdc, 0x1a, 0xca, 0x03, 0x1a,
  0x47, 0xe0, 0xd4, 0xe6, 0x30, 0x3d, 0xdc, 0xf8, 0x2e, 0xf2, 0x0f, 0xfd,
  0x03, 0x2b, 0x03, 0xe8, 0xdc, 0x7f, 0x68, 0xb1, 0xe8, 0x05, 0x13, 0x2e,
  0x13, 0xfc, 0xf0, 0xfe, 0xe9, 0xde, 0x0b, 0x57, 0x29, 0xe5, 0xcb, 0x04,
  0x3d, 0xe3, 0xe5, 0xfd, 0x05, 0xf7, 0x0c, 0x0c, 0x53, 0x3b, 0xed, 0xbf,
  0xe9, 0x33, 0xfd, 0xdf, 0x11, 0x1e, 0x07, 0x0e, 0x47, 0x7f, 0x26, 0xf9,
  0xa9, 0xe5, 0x2f, 0xf5, 0xee, 0xe8, 0x03, 0x19, 0x0f, 0x13, 0x7f, 0x4e,
  0x04, 0xd9, 0xf5, 0xfa, 0xac, 0xcd, 0xf1, 0x19, 0x1d, 0xee, 0x15, 0x50,
  0x54, 0x0d, 0xd3, 0x23, 0xdb, 0x9d, 0xdb, 0x0b, 0x21, 0x05, 0xf2, 0x39,
  0x6d, 0x1f, 0x09, 0xa6, 0x27, 0xe0, 0xa1, 0xf2, 0x1e, 0x28, 0x15, 0xf0,
  0x9a, 0xf8, 0xff, 0xff, 0x04, 0x00, 0x00, 0x00, 0x20, 0x00, 0x00, 0x00,
  0x02, 0x02, 0x00, 0x00, 0x13, 0x01, 0x00, 0x00, 0xea, 0xf1, 0xff, 0xff,
  0x9b, 0xf5, 0xff, 0xff, 0xa8, 0xda, 0xff, 0xff, 0x81, 0xdd, 0xff, 0xff,
  0x38, 0xe4, 0xff, 0xff, 0xc0, 0xd1, 0xff, 0xff, 0xc6, 0xf8, 0xff, 0xff,
  0x04, 0x00, 0x00, 0x00, 0x80, 0x01, 0x00, 0x00, 0x81, 0xd3, 0xd4, 0xf7,
  0xfd, 0x00, 0xff, 0x01, 0xcd, 0xfd, 0xf7, 0xfa, 0xf7, 0xfe, 0xff, 0x01,
  0xe8, 0x01, 0xff, 0xed, 0xfb, 0xfd, 0x07, 0xfe, 0xcd, 0xfd, 0x17, 0x7f,
  0xee, 0xd6, 0xc4, 0xcc, 0x9b, 0xe0, 0x99, 0x2e, 0x03, 0xf5, 0xde, 0x87,
  0xb3, 0x1a, 0x17, 0x58, 0xd5, 0xbf, 0xbb, 0xc9, 0x02, 0x02, 0xfe, 0xf9,
  0xfb, 0x81, 0xfa, 0xf7, 0xff, 0x01, 0xff, 0xfc, 0xff, 0xce, 0xfe, 0x04,
  0xfe, 0x00, 0xff, 0xff, 0xfe, 0xfb, 0x0a, 0x04, 0x0d, 0xfc, 0xfb, 0x00,
  0x04, 0xd8, 0xd6, 0x81, 0x00, 0xea, 0xe9, 0xfc, 0x06, 0xfd, 0xfb, 0xee,
  0xfc, 0xe8, 0xd5, 0xff, 0x05, 0x05, 0x0f, 0xf9, 0xf9, 0xfb, 0x03, 0xfd,
  0x04, 0x07, 0xfd, 0x08, 0xf3, 0x00, 0xf6, 0xfe, 0xfb, 0xfd, 0x02, 0xff,
  0x81, 0x01, 0xf0, 0xf7, 0xea, 0x0a, 0x03, 0x00, 0x95, 0xfe, 0xf7, 0xca,
  0xf8, 0xf8, 0x10, 0x03, 0xfb, 0xff, 0xef, 0xb5, 0xfd, 0xe3, 0xfa, 0xff,
  0xff, 0x00, 0xf5, 0xd5, 0xf4, 0x81, 0xf7, 0xf9, 0x00, 0x00, 0x06, 0x04,
  0x03, 0xfd, 0x81, 0xec, 0xfe, 0xf7, 0x03, 0x01, 0x01, 0xf9, 0xe4, 0xf7,
  0xef, 0xc3, 0xf9, 0xf4, 0xfd, 0x12, 0xf9, 0xfe, 0x03, 0xe4, 0xf0, 0xff,
  0x05, 0x03, 0x07, 0xf7, 0x03, 0xec, 0xee, 0xf6, 0xf7, 0xfe, 0x00, 0xfa,
  0x81, 0xef, 0xf7, 0x01, 0xec, 0x08, 0x0f, 0x05, 0xc5, 0xe7, 0x02, 0xfd,
  0xd7, 0x09, 0xfb, 0x02, 0xfd, 0xf9, 0x04, 0xfa, 0x00, 0xfc, 0xe7, 0xf8,
  0x02, 0xfe, 0x00, 0x00, 0xfe, 0xf9, 0x81, 0xec, 0xd4, 0xfb, 0xff, 0xfe,
  0xfd, 0x01, 0x00, 0x09, 0xb9, 0xcc, 0xf8, 0x01, 0xf6, 0xff, 0xfe, 0xf8,
  0xf3, 0x81, 0xf8, 0xfe, 0x00, 0x01, 0xfd, 0xf0, 0x81, 0xf0, 0xff, 0xf9,
  0xc8, 0xfd, 0x03, 0xff, 0x85, 0xf1, 0xfb, 0x00, 0xed, 0xfd, 0xfe, 0xfe,
  0xea, 0xf7, 0x0a, 0xfc, 0xfc, 0x00, 0xfe, 0x06, 0xf5, 0xe9, 0xdf, 0x12,
  0x19, 0x33, 0xff, 0xbf, 0xf5, 0xf0, 0xf7, 0xf1, 0xfe, 0xba, 0xed, 0xae,
  0xff, 0x05, 0xf4, 0x10, 0x27, 0xa5, 0xd3, 0x81, 0x01, 0xff, 0xff, 0xfb,
  0x09, 0x81, 0xc6, 0xf7, 0x01, 0xff, 0xfb, 0x00, 0xfb, 0xfc, 0xfd, 0x00,
  0xff, 0xf4, 0xfa, 0x02, 0x0a, 0x05, 0x03, 0x01, 0xfe, 0xec, 0xec, 0xeb,
  0x01, 0x05, 0xff, 0xe8, 0x00, 0xf8, 0xf6, 0xfc, 0xff, 0xfd, 0xf6, 0xd5,
  0x04, 0xfa, 0xf7, 0xf6, 0x01, 0xfd, 0xab, 0x81, 0xf9, 0x42, 0x05, 0x11,
  0x81, 0xef, 0x18, 0xe3, 0xe7, 0xf1, 0xf7, 0xe0, 0x81, 0xf0, 0xf0, 0xbf,
  0xc1, 0xcc, 0xdf, 0x47, 0xc9, 0x0b, 0xec, 0xd5, 0xfe, 0x02, 0x29, 0x1d,
  0xd3, 0xdd, 0x07, 0xfc, 0xc9, 0xf9, 0x10, 0xf0, 0x13, 0xe6, 0xf8, 0x37,
  0x81, 0xe7, 0xfc, 0x0a, 0xf6, 0x1f, 0x08, 0xf1, 0x52, 0xfa, 0xff, 0xff,
  0x04, 0x00, 0x00, 0x00, 0x40, 0x00, 0x00, 0x00, 0x2d, 0x00, 0x00, 0x00,
  0xe7, 0x0b, 0x00, 0x00, 0x4e, 0xfe, 0xff, 0xff, 0xfa, 0xfd, 0xff, 0xff,
  0x97, 0xfe, 0xff, 0xff, 0x5a, 0xfe, 0xff, 0xff, 0xec, 0xfe, 0xff, 0xff,
  0xd9, 0xff, 0xff, 0xff, 0xd0, 0xff, 0xff, 0xff, 0x47, 0x00, 0x00, 0x00,
  0x0d, 0x01, 0x00, 0x00, 0x38, 0x02, 0x00, 0x00, 0x08, 0xff, 0xff, 0xff,
  0xce, 0x00, 0x00, 0x00, 0x97, 0xfd, 0xff, 0xff, 0xb2, 0xf1, 0xff, 0xff,
  0x9e, 0xfa, 0xff, 0xff, 0x04, 0x00, 0x00, 0x00, 0x10, 0x04, 0x00, 0x00,
  0xdb, 0xfe, 0xf9, 0x02, 0x81, 0xf4, 0xd3, 0xf6, 0xf1, 0xec, 0xec, 0xfb,
  0xf7, 0x01, 0xff, 0xc0, 0x05, 0xf7, 0x01, 0x04, 0xe2, 0xe9, 0xc9, 0x0d,
  0xf3, 0xc3, 0xf7, 0xf6, 0xfc, 0xf7, 0xfb, 0xe6, 0x04, 0xfa, 0x04, 0x06,
  0xea, 0xfa, 0xe6, 0x0b, 0xe8, 0xee, 0x08, 0xf1, 0xfb, 0xfc, 0xfc, 0xed,
  0x04, 0xfb, 0x01, 0x06, 0xf1, 0xff, 0xe5, 0x07, 0xe0, 0xf0, 0x08, 0xf2,
  0xf7, 0xfd, 0xfb, 0xf0, 0x08, 0xf5, 0xfd, 0x08, 0xf1, 0xfb, 0xd9, 0x0b,
  0xfd, 0xf1, 0x08, 0xef, 0xf5, 0xfe, 0xf9, 0xfa, 0x08, 0xfe, 0xff, 0x0a,
  0xf8, 0xf8, 0xdc, 0x05, 0x0c, 0xfa, 0x0d, 0xe7, 0xfd, 0xf6, 0xf3, 0xf7,
  0x06, 0xf4, 0xfd, 0x0a, 0xee, 0xf6, 0xe6, 0x08, 0x0e, 0xfc, 0x0b, 0xf0,
  0xf6, 0xee, 0xf2, 0xf6, 0x04, 0xfb, 0x03, 0x0c, 0xf6, 0xfa, 0xe8, 0x0f,
  0x10, 0xf7, 0x0e, 0xf4, 0xfa, 0xed, 0xf2, 0xf6, 0x05, 0xf9, 0xff, 0x08,
  0xf7, 0xf8, 0xf5, 0x0a, 0x09, 0xff, 0x0e, 0xfb, 0xf4, 0xf0, 0xf0, 0xfa,
  0x01, 0xf7, 0x02, 0x06, 0xfa, 0xf9, 0xf6, 0x09, 0x07, 0xfa, 0x0a, 0xf4,
  0xef, 0xee, 0xf4, 0xfb, 0x05, 0xf7, 0x07, 0x07, 0xf7, 0xfa, 0xf0, 0x01,
  0x04, 0xf2, 0x06, 0xf8, 0xfc, 0xf3, 0xfd, 0xfb, 0x02, 0xfc, 0xf7, 0x04,
  0xfd, 0xf5, 0xf4, 0x09, 0x0a, 0xf8, 0x09, 0xfa, 0xf9, 0xf3, 0x02, 0xff,
  0xf2, 0xf4, 0x07, 0xed, 0xfb, 0xf7, 0xf4, 0x08, 0xff, 0xf8, 0xfd, 0xf1,
  0xe8, 0xef, 0xfb, 0xfe, 0xee, 0xf9, 0xf2, 0xf2, 0xf1, 0xe8, 0x07, 0xee,
  0xef, 0xe1, 0xf9, 0xff, 0xfd, 0x0a, 0xfb, 0xff, 0xff, 0xfa, 0xfa, 0xf8,
  0xff, 0xf1, 0x09, 0xfa, 0xe8, 0xf6, 0xfc, 0xf5, 0xf6, 0x05, 0xfa, 0x08,
  0x03, 0x00, 0xfc, 0xf3, 0x07, 0xf8, 0x08, 0xff, 0xf2, 0xfc, 0x02, 0xf2,
  0xf2, 0x05, 0x00, 0x00, 0x05, 0x00, 0xf5, 0xf3, 0x00, 0x05, 0x07, 0x03,
  0xf9, 0xfd, 0x01, 0xf0, 0xee, 0xfb, 0xfa, 0x00, 0x06, 0xfc, 0xf7, 0xf4,
  0x03, 0x07, 0x0d, 0x04, 0xf9, 0xff, 0xfc, 0xe8, 0xf2, 0xfb, 0xff, 0xff,
  0x0a, 0xfd, 0xf8, 0xf2, 0x05, 0x02, 0x0c, 0x06, 0xf9, 0xfc, 0x04, 0xeb,
  0xf1, 0xfc, 0xfa, 0x02, 0x0c, 0xfc, 0xf3, 0xf8, 0x07, 0x09, 0x0b, 0x02,
  0xf9, 0x00, 0x01, 0xf2, 0xeb, 0xf9, 0xf8, 0xff, 0x08, 0xfe, 0xf6, 0xfc,
  0x03, 0x08, 0x10, 0x08, 0xf3, 0xfe, 0xff, 0xf0, 0xf1, 0xf0, 0xfd, 0x01,
  0x07, 0xfa, 0xfc, 0xf4, 0x05, 0x09, 0x01, 0x02, 0xf3, 0xfa, 0x02, 0xf5,
  0xed, 0xfd, 0xfb, 0x01, 0x08, 0xfe, 0xf8, 0xf6, 0x04, 0x0a, 0x09, 0x08,
  0xf4, 0xfd, 0x03, 0xf1, 0xe9, 0xf7, 0xf9, 0x00, 0x0b, 0xf6, 0xfb, 0xf4,
  0x02, 0x01, 0x04, 0xff, 0xf3, 0xfd, 0x01, 0xec, 0xf8, 0xfa, 0xfc, 0xfc,
  0xfe, 0xf8, 0xf2, 0xfa, 0x01, 0x07, 0xf4, 0x03, 0xe5, 0xf5, 0xfb, 0xe1,
  0xf4, 0xfa, 0xfe, 0x00, 0xee, 0xea, 0xfa, 0xfc, 0xfd, 0xfe, 0xec, 0x00,
  0xf4, 0xf9, 0xf5, 0xe4, 0xf3, 0xf4, 0x00, 0xf0, 0x00, 0xfa, 0x01, 0xfb,
  0xf9, 0xff, 0xe0, 0xf4, 0xeb, 0xfd, 0xf7, 0xfe, 0x01, 0x00, 0xfc, 0x0b,
  0xec, 0xfa, 0x07, 0xf4, 0x03, 0xf1, 0xef, 0xf7, 0xf0, 0x08, 0xf7, 0xf7,
  0xf5, 0xfd, 0xf8, 0x04, 0xed, 0xfb, 0x06, 0xf9, 0x05, 0xeb, 0xf8, 0xf9,
  0x0a, 0x0b, 0xf8, 0xfe, 0xf6, 0xfe, 0x01, 0x05, 0xf1, 0xfa, 0x0b, 0xf8,
  0x04, 0xf5, 0xf2, 0xff, 0x0c, 0x0f, 0xf9, 0x03, 0xf7, 0x06, 0xf5, 0x03,
  0xf0, 0xfa, 0x0d, 0xf7, 0x05, 0xed, 0xf8, 0x02, 0x07, 0x0d, 0xfa, 0x04,
  0xf1, 0x09, 0xf7, 0x06, 0xef, 0xf9, 0x0a, 0xf4, 0x06, 0xf5, 0xee, 0xfe,
  0x07, 0x0e, 0xfb, 0x01, 0xf8, 0x08, 0xfa, 0x01, 0xee, 0xfb, 0x06, 0xf9,
  0x05, 0xe5, 0xf5, 0xfe, 0x07, 0x0b, 0xfb, 0x04, 0xff, 0x0a, 0xfb, 0x07,
  0xef, 0xfd, 0x07, 0xf7, 0x03, 0xec, 0xf5, 0xff, 0x07, 0x0c, 0xfd, 0x07,
  0xf7, 0x0c, 0xf8, 0x04, 0xe9, 0xfb, 0x07, 0xfa, 0x03, 0xf0, 0xf0, 0xfc,
  0x08, 0x08, 0xf3, 0x08, 0xff, 0x0d, 0xfa, 0x04, 0xf2, 0xfa, 0x03, 0xf4,
  0x06, 0xeb, 0xf8, 0xfa, 0xff, 0x07, 0xfa, 0x06, 0xfb, 0x0c, 0xf9, 0x01,
  0xec, 0xff, 0x00, 0xf7, 0x07, 0xe6, 0xf4, 0xf6, 0xfc, 0x02, 0xf6, 0xfe,
  0xfd, 0x0b, 0xf3, 0x01, 0xeb, 0x03, 0xf8, 0xfb, 0xff, 0xf6, 0xeb, 0xf8,
  0x00, 0x06, 0xec, 0x00, 0xf4, 0x06, 0xf9, 0x05, 0xe9, 0xfc, 0x04, 0xfc,
  0xfc, 0xfd, 0xe5, 0xfa, 0xf5, 0x02, 0xe1, 0xf8, 0xfc, 0x06, 0x03, 0xf7,
  0x00, 0x09, 0xf6, 0xf9, 0xf5, 0x0c, 0xfc, 0xf8, 0x0a, 0xfb, 0x07, 0x01,
  0xfb, 0xfe, 0xfc, 0xf8, 0xff, 0x02, 0x01, 0xfe, 0xf2, 0x02, 0xfe, 0xfd,
  0x00, 0xf9, 0x02, 0x00, 0xfb, 0xf9, 0xff, 0xf8, 0xf4, 0x06, 0xf9, 0xf8,
  0xf6, 0xee, 0x01, 0xfb, 0xfe, 0xf7, 0xfb, 0x00, 0xfc, 0xf9, 0x08, 0xeb,
  0xf5, 0x07, 0xfd, 0xfc, 0xf3, 0xfb, 0xf8, 0xf3, 0xf9, 0xf2, 0xf8, 0x04,
  0xfd, 0xfb, 0x0a, 0xf4, 0xf7, 0x05, 0xfe, 0xf9, 0xf4, 0xf5, 0xfc, 0xf4,
  0xff, 0xf0, 0xf3, 0x03, 0xfb, 0xf6, 0x06, 0xf5, 0xf2, 0x04, 0xfc, 0x00,
  0xed, 0xf8, 0xfd, 0xf4, 0xfd, 0xf2, 0xf6, 0xfe, 0x00, 0xfc, 0x05, 0xf3,
  0xf6, 0x06, 0x00, 0xfd, 0xef, 0xf7, 0xfc, 0xf2, 0xf6, 0xf2, 0xf6, 0x03,
  0xfa, 0xff, 0x05, 0xf9, 0xef, 0x04, 0xfd, 0x00, 0xec, 0xf6, 0xf8, 0xf0,
  0xfe, 0xf5, 0xf8, 0xff, 0xfc, 0xf7, 0x06, 0xf3, 0xf3, 0x03, 0xfe, 0xf6,
  0xf2, 0xf6, 0xf9, 0xf1, 0x01, 0xf1, 0xf5, 0xff, 0xff, 0xfe, 0x03, 0xf0,
  0xf8, 0x03, 0xfc, 0xfd, 0xf1, 0xf4, 0xff, 0xf5, 0xfb, 0xfa, 0xf8, 0x01,
  0xf5, 0xfd, 0x05, 0xf8, 0xf6, 0x01, 0xf7, 0xf7, 0xf5, 0xf6, 0xfd, 0xf3,
  0x01, 0xf9, 0xf9, 0xff, 0xf7, 0xfe, 0x01, 0xf4, 0xf6, 0x05, 0xf8, 0xf0,
  0xf7, 0xf8, 0xf6, 0xf5, 0xfa, 0xf8, 0xfe, 0x01, 0xf9, 0xfd, 0x00, 0xfb,
  0x04, 0x06, 0xf4, 0xfd, 0xf2, 0xfb, 0xe9, 0xea, 0xf6, 0xfa, 0x0b, 0x01,
  0xf6, 0x00, 0xfe, 0xf2, 0xef, 0xfb, 0xd6, 0x06, 0x01, 0xf2, 0xfa, 0xfb,
  0x02, 0xeb, 0xfb, 0x01, 0x04, 0xfc, 0xf3, 0xf7, 0xf0, 0xfc, 0xe8, 0x06,
  0xf9, 0xf4, 0x01, 0x0d, 0xf0, 0xe8, 0xfa, 0x05, 0x06, 0xfe, 0xfa, 0xe4,
  0xfb, 0xfa, 0xea, 0x07, 0x00, 0xfe, 0x05, 0x08, 0xf0, 0xf1, 0xf3, 0x04,
  0x08, 0x01, 0xfb, 0xf3, 0xf8, 0xfe, 0xf5, 0x04, 0x01, 0x01, 0x03, 0x03,
  0xf2, 0xf3, 0xf1, 0x08, 0x08, 0xfe, 0xfd, 0xf5, 0xfd, 0xfe, 0xf3, 0x05,
  0x02, 0x04, 0x06, 0x07, 0xea, 0xf7, 0xf3, 0x04, 0x07, 0x04, 0xfa, 0xfa,
  0x02, 0xf7, 0xea, 0x06, 0x05, 0xff, 0x03, 0x04, 0xf7, 0xf9, 0xf5, 0x03,
  0x0a, 0xfc, 0xfc, 0xf6, 0xff, 0xfd, 0xf2, 0x07, 0x03, 0x01, 0x00, 0x03,
  0xec, 0xf8, 0xf4, 0x08, 0x07, 0x01, 0xf8, 0xf6, 0x04, 0xfe, 0xef, 0x07,
  0x07, 0x01, 0x04, 0x08, 0xf0, 0x00, 0xf4, 0x07, 0x07, 0xfe, 0xfe, 0xfc,
  0x00, 0x01, 0xef, 0x04, 0x04, 0x02, 0x00, 0x06, 0xec, 0xfe, 0xf6, 0x07,
  0x04, 0xfe, 0xfa, 0xfe, 0x04, 0xf9, 0xef, 0x02, 0x09, 0xff, 0x05, 0x03,
  0xef, 0xfb, 0xf0, 0x02, 0x07, 0xfb, 0xff, 0xf6, 0xfe, 0xf8, 0xf9, 0x00,
  0x06, 0x00, 0x01, 0xfd, 0xfa, 0xfa, 0xf2, 0xfd, 0xfe, 0xf3, 0xfb, 0xf8,
  0xfc, 0xfe, 0xf4, 0xfd, 0x01, 0xfc, 0xfd, 0x02, 0xf8, 0xe9, 0xf3, 0x04,
  0xfe, 0xf3, 0xf8, 0xfa, 0x06, 0xf8, 0xf9, 0xe5, 0xfb, 0xf8, 0xf7, 0xf6,
  0xf8, 0xf0, 0xfd, 0x00, 0xe4, 0xea, 0x03, 0x02, 0xba, 0xfe, 0xff, 0xff,
  0x04, 0x00, 0x00, 0x00, 0x14, 0x00, 0x00, 0x00, 0x25, 0xfc, 0xff, 0xff,
  0xe2, 0xff, 0xff, 0xff, 0xee, 0xfb, 0xff, 0xff, 0xca, 0x08, 0x00, 0x00,
  0x18, 0xfc, 0xff, 0xff, 0xda, 0xfe, 0xff, 0xff, 0x04, 0x00, 0x00, 0x00,
  0x08, 0x00, 0x00, 0x00, 0xff, 0xff, 0xff, 0xff, 0xd0, 0x00, 0x00, 0x00,
  0xee, 0xfe, 0xff, 0xff, 0x04, 0x00, 0x00, 0x00, 0x10, 0x00, 0x00, 0x00,
  0x01, 0x00, 0x00, 0x00, 0x19, 0x00, 0x00, 0x00, 0x01, 0x00, 0x00, 0x00,
  0x10, 0x00, 0x00, 0x00, 0x0a, 0xff, 0xff, 0xff, 0x04, 0x00, 0x00, 0x00,
  0x10, 0x00, 0x00, 0x00, 0x01, 0x00, 0x00, 0x00, 0x01, 0x00, 0x00, 0x00,
  0x19, 0x00, 0x00, 0x00, 0x08, 0x00, 0x00, 0x00, 0x26, 0xff, 0xff, 0xff,
  0x04, 0x00, 0x00, 0x00, 0x10, 0x00, 0x00, 0x00, 0x01, 0x00, 0x00, 0x00,
  0x32, 0x00, 0x00, 0x00, 0x01, 0x00, 0x00, 0x00, 0x08, 0x00, 0x00, 0x00,
  0x42, 0xff, 0xff, 0xff, 0x04, 0x00, 0x00, 0x00, 0x10, 0x00, 0x00, 0x00,
  0x01, 0x00, 0x00, 0x00, 0x01, 0x00, 0x00, 0x00, 0x32, 0x00, 0x00, 0x00,
  0x0d, 0x00, 0x00, 0x00, 0x90, 0xf0, 0xff, 0xff, 0x94, 0xf0, 0xff, 0xff,
  0x0f, 0x00, 0x00, 0x00, 0x4d, 0x4c, 0x49, 0x52, 0x20, 0x43, 0x6f, 0x6e,
  0x76, 0x65, 0x72, 0x74, 0x65, 0x64, 0x2e, 0x00, 0x01, 0x00, 0x00, 0x00,
  0x14, 0x00, 0x00, 0x00, 0x00, 0x00, 0x0e, 0x00, 0x18, 0x00, 0x14, 0x00,
  0x10, 0x00, 0x0c, 0x00, 0x08, 0x00, 0x04, 0x00, 0x0e, 0x00, 0x00, 0x00,
  0x14, 0x00, 0x00, 0x00, 0x1c, 0x00, 0x00, 0x00, 0x84, 0x02, 0x00, 0x00,
  0x88, 0x02, 0x00, 0x00, 0x8c, 0x02, 0x00, 0x00, 0x04, 0x00, 0x00, 0x00,
  0x6d, 0x61, 0x69, 0x6e, 0x00, 0x00, 0x00, 0x00, 0x0b, 0x00, 0x00, 0x00,
  0x48, 0x02, 0x00, 0x00, 0xec, 0x01, 0x00, 0x00, 0xb8, 0x01, 0x00, 0x00,
  0x68, 0x01, 0x00, 0x00, 0x44, 0x01, 0x00, 0x00, 0x00, 0x01, 0x00, 0x00,
  0xdc, 0x00, 0x00, 0x00, 0x9c, 0x00, 0x00, 0x00, 0x78, 0x00, 0x00, 0x00,
  0x40, 0x00, 0x00, 0x00, 0x04, 0x00, 0x00, 0x00, 0x4a, 0xfe, 0xff, 0xff,
  0x1c, 0x00, 0x00, 0x00, 0x00, 0x00, 0x00, 0x09, 0x1c, 0x00, 0x00, 0x00,
  0x20, 0x00, 0x00, 0x00, 0x04, 0x00, 0x00, 0x00, 0x00, 0x00, 0x06, 0x00,
  0x08, 0x00, 0x04, 0x00, 0x06, 0x00, 0x00, 0x00, 0x00, 0x00, 0x80, 0x3f,
  0x01, 0x00, 0x00, 0x00, 0x16, 0x00, 0x00, 0x00, 0x01, 0x00, 0x00, 0x00,
  0x15, 0x00, 0x00, 0x00, 0x82, 0xfe, 0xff, 0xff, 0x14, 0x00, 0x00, 0x00,
  0x00, 0x00, 0x00, 0x08, 0x10, 0x00, 0x00, 0x00, 0x14, 0x00, 0x00, 0x00,
  0x03, 0x00, 0x00, 0x00, 0x68, 0xf1, 0xff, 0xff, 0x01, 0x00, 0x00, 0x00,
  0x15, 0x00, 0x00, 0x00, 0x03, 0x00, 0x00, 0x00, 0x14, 0x00, 0x00, 0x00,
  0x07, 0x00, 0x00, 0x00, 0x06, 0x00, 0x00, 0x00, 0x5a, 0xfe, 0xff, 0xff,
  0x08, 0x00, 0x00, 0x00, 0x0c, 0x00, 0x00, 0x00, 0x01, 0x00, 0x00, 0x00,
  0x14, 0x00, 0x00, 0x00, 0x02, 0x00, 0x00, 0x00, 0x13, 0x00, 0x00, 0x00,
  0x05, 0x00, 0x00, 0x00, 0xd6, 0xfe, 0xff, 0xff, 0x14, 0x00, 0x00, 0x00,
  0x00, 0x00, 0x00, 0x05, 0x20, 0x00, 0x00, 0x00, 0x24, 0x00, 0x00, 0x00,
  0x02, 0x00, 0x00, 0x00, 0x42, 0xff, 0xff, 0xff, 0x02, 0x00, 0x00, 0x00,
  0x01, 0x00, 0x00, 0x00, 0x02, 0x00, 0x00, 0x00, 0x01, 0x00, 0x00, 0x00,
  0x01, 0x00, 0x00, 0x00, 0x13, 0x00, 0x00, 0x00, 0x01, 0x00, 0x00, 0x00,
  0x12, 0x00, 0x00, 0x00, 0xb6, 0xfe, 0xff, 0xff, 0x08, 0x00, 0x00, 0x00,
  0x0c, 0x00, 0x00, 0x00, 0x01, 0x00, 0x00, 0x00, 0x12, 0x00, 0x00, 0x00,
  0x02, 0x00, 0x00, 0x00, 0x11, 0x00, 0x00, 0x00, 0x04, 0x00, 0x00, 0x00,
  0x32, 0xff, 0xff, 0xff, 0x14, 0x00, 0x00, 0x00, 0x00, 0x00, 0x00, 0x01,
  0x1c, 0x00, 0x00, 0x00, 0x20, 0x00, 0x00, 0x00, 0x01, 0x00, 0x00, 0x00,
  0x24, 0xff, 0xff, 0xff, 0x00, 0x00, 0x00, 0x01, 0x01, 0x00, 0x00, 0x00,
  0x01, 0x00, 0x00, 0x00, 0x01, 0x00, 0x00, 0x00, 0x11, 0x00, 0x00, 0x00,
  0x03, 0x00, 0x00, 0x00, 0x10, 0x00, 0x00, 0x00, 0x09, 0x00, 0x00, 0x00,
  0x08, 0x00, 0x00, 0x00, 0x16, 0xff, 0xff, 0xff, 0x08, 0x00, 0x00, 0x00,
  0x0c, 0x00, 0x00, 0x00, 0x01, 0x00, 0x00, 0x00, 0x10, 0x00, 0x00, 0x00,
  0x02, 0x00, 0x00, 0x00, 0x0f, 0x00, 0x00, 0x00, 0x03, 0x00, 0x00, 0x00,
  0x92, 0xff, 0xff, 0xff, 0x24, 0x00, 0x00, 0x00, 0x00, 0x00, 0x00, 0x05,
  0x30, 0x00, 0x00, 0x00, 0x34, 0x00, 0x00, 0x00, 0x02, 0x00, 0x00, 0x00,
  0x00, 0x00, 0x0e, 0x00, 0x14, 0x00, 0x00, 0x00, 0x10, 0x00, 0x0c, 0x00,
  0x08, 0x00, 0x04, 0x00, 0x0e, 0x00, 0x00, 0x00, 0x02, 0x00, 0x00, 0x00,
  0x01, 0x00, 0x00, 0x00, 0x02, 0x00, 0x00, 0x00, 0x01, 0x00, 0x00, 0x00,
  0x01, 0x00, 0x00, 0x00, 0x0f, 0x00, 0x00, 0x00, 0x01, 0x00, 0x00, 0x00,
  0x0e, 0x00, 0x00, 0x00, 0x82, 0xff, 0xff, 0xff, 0x08, 0x00, 0x00, 0x00,
  0x0c, 0x00, 0x00, 0x00, 0x01, 0x00, 0x00, 0x00, 0x0e, 0x00, 0x00, 0x00,
  0x02, 0x00, 0x00, 0x00, 0x0d, 0x00, 0x00, 0x00, 0x02, 0x00, 0x00, 0x00,
  0x00, 0x00, 0x0e, 0x00, 0x18, 0x00, 0x14, 0x00, 0x10, 0x00, 0x0c, 0x00,
  0x0b, 0x00, 0x04, 0x00, 0x0e, 0x00, 0x00, 0x00, 0x20, 0x00, 0x00, 0x00,
  0x00, 0x00, 0x00, 0x01, 0x28, 0x00, 0x00, 0x00, 0x2c, 0x00, 0x00, 0x00,
  0x01, 0x00, 0x00, 0x00, 0x0c, 0x00, 0x10, 0x00, 0x00, 0x00, 0x0c, 0x00,
  0x08, 0x00, 0x07, 0x00, 0x0c, 0x00, 0x00, 0x00, 0x00, 0x00, 0x00, 0x01,
  0x01, 0x00, 0x00, 0x00, 0x01, 0x00, 0x00, 0x00, 0x01, 0x00, 0x00, 0x00,
  0x0d, 0x00, 0x00, 0x00, 0x03, 0x00, 0x00, 0x00, 0x0c, 0x00, 0x00, 0x00,
  0x0b, 0x00, 0x00, 0x00, 0x0a, 0x00, 0x00, 0x00, 0x00, 0x00, 0x0a, 0x00,
  0x0c, 0x00, 0x00, 0x00, 0x08, 0x00, 0x04, 0x00, 0x0a, 0x00, 0x00, 0x00,
  0x08, 0x00, 0x00, 0x00, 0x0c, 0x00, 0x00, 0x00, 0x01, 0x00, 0x00, 0x00,
  0x0c, 0x00, 0x00, 0x00, 0x02, 0x00, 0x00, 0x00, 0x00, 0x00, 0x00, 0x00,
  0x01, 0x00, 0x00, 0x00, 0x01, 0x00, 0x00, 0x00, 0x16, 0x00, 0x00, 0x00,
  0x01, 0x00, 0x00, 0x00, 0x00, 0x00, 0x00, 0x00, 0x17, 0x00, 0x00, 0x00,
  0xe8, 0x0c, 0x00, 0x00, 0x78, 0x0c, 0x00, 0x00, 0x24, 0x0c, 0x00, 0x00,
  0xcc, 0x0b, 0x00, 0x00, 0x74, 0x0b, 0x00, 0x00, 0x28, 0x0b, 0x00, 0x00,
  0xac, 0x0a, 0x00, 0x00, 0x40, 0x0a, 0x00, 0x00, 0x14, 0x09, 0x00, 0x00,
  0xe8, 0x07, 0x00, 0x00, 0x1c, 0x07, 0x00, 0x00, 0x50, 0x06, 0x00, 0x00,
  0xcc, 0x05, 0x00, 0x00, 0xe0, 0x04, 0x00, 0x00, 0x5c, 0x04, 0x00, 0x00,
  0xe0, 0x03, 0x00, 0x00, 0x5c, 0x03, 0x00, 0x00, 0x60, 0x02, 0x00, 0x00,
  0xdc, 0x01, 0x00, 0x00, 0x60, 0x01, 0x00, 0x00, 0xf4, 0x00, 0x00, 0x00,
  0x70, 0x00, 0x00, 0x00, 0x04, 0x00, 0x00, 0x00, 0x8a, 0xf3, 0xff, 0xff,
  0x00, 0x00, 0x00, 0x01, 0x14, 0x00, 0x00, 0x00, 0x30, 0x00, 0x00, 0x00,
  0x17, 0x00, 0x00, 0x00, 0x00, 0x00, 0x00, 0x09, 0x44, 0x00, 0x00, 0x00,
  0x74, 0xf3, 0xff, 0xff, 0x08, 0x00, 0x00, 0x00, 0x10, 0x00, 0x00, 0x00,
  0x01, 0x00, 0x00, 0x00, 0x80, 0xff, 0xff, 0xff, 0xff, 0xff, 0xff, 0xff,
  0x01, 0x00, 0x00, 0x00, 0x00, 0x00, 0x80, 0x3b, 0x19, 0x00, 0x00, 0x00,
  0x53, 0x74, 0x61, 0x74, 0x65, 0x66, 0x75, 0x6c, 0x50, 0x61, 0x72, 0x74,
  0x69, 0x74, 0x69, 0x6f, 0x6e, 0x65, 0x64, 0x43, 0x61, 0x6c, 0x6c, 0x3a,
  0x30, 0x00, 0x00, 0x00, 0x02, 0x00, 0x00, 0x00, 0x01, 0x00, 0x00, 0x00,
  0x05, 0x00, 0x00, 0x00, 0xf2, 0xf3, 0xff, 0xff, 0x00, 0x00, 0x00, 0x01,
  0x14, 0x00, 0x00, 0x00, 0x30, 0x00, 0x00, 0x00, 0x16, 0x00, 0x00, 0x00,
  0x00, 0x00, 0x00, 0x09, 0x5c, 0x00, 0x00, 0x00, 0xdc, 0xf3, 0xff, 0xff,
  0x08, 0x00, 0x00, 0x00, 0x10, 0x00, 0x00, 0x00, 0x01, 0x00, 0x00, 0x00,
  0x57, 0x00, 0x00, 0x00, 0x00, 0x00, 0x00, 0x00, 0x01, 0x00, 0x00, 0x00,
  0xe6, 0xb1, 0x57, 0x3e, 0x32, 0x00, 0x00, 0x00, 0x73, 0x65, 0x71, 0x75,
  0x65, 0x6e, 0x74, 0x69, 0x61, 0x6c, 0x2f, 0x79, 0x5f, 0x70, 0x72, 0x65,
  0x64, 0x2f, 0x4d, 0x61, 0x74, 0x4d, 0x75, 0x6c, 0x3b, 0x73, 0x65, 0x71,
  0x75, 0x65, 0x6e, 0x74, 0x69, 0x61, 0x6c, 0x2f, 0x79, 0x5f, 0x70, 0x72,
  0x65, 0x64, 0x2f, 0x42, 0x69, 0x61, 0x73, 0x41, 0x64, 0x64, 0x00, 0x00,
  0x02, 0x00, 0x00, 0x00, 0x01, 0x00, 0x00, 0x00, 0x05, 0x00, 0x00, 0x00,
  0x72, 0xf4, 0xff, 0xff, 0x00, 0x00, 0x00, 0x01, 0x14, 0x00, 0x00, 0x00,
  0x30, 0x00, 0x00, 0x00, 0x15, 0x00, 0x00, 0x00, 0x00, 0x00, 0x00, 0x09,
  0x44, 0x00, 0x00, 0x00, 0x5c, 0xf4, 0xff, 0xff, 0x08, 0x00, 0x00, 0x00,
  0x10, 0x00, 0x00, 0x00, 0x01, 0x00, 0x00, 0x00, 0x80, 0xff, 0xff, 0xff,
  0xff, 0xff, 0xff, 0xff, 0x01, 0x00, 0x00, 0x00, 0xf5, 0x3a, 0xfc, 0x3c,
  0x1a, 0x00, 0x00, 0x00, 0x73, 0x65, 0x71, 0x75, 0x65, 0x6e, 0x74, 0x69,
  0x61, 0x6c, 0x2f, 0x66, 0x6c, 0x61, 0x74, 0x74, 0x65, 0x6e, 0x2f, 0x52,
  0x65, 0x73, 0x68, 0x61, 0x70, 0x65, 0x00, 0x00, 0x02, 0x00, 0x00, 0x00,
  0x01, 0x00, 0x00, 0x00, 0xd0, 0x00, 0x00, 0x00, 0xda, 0xf4, 0xff, 0xff,
  0x00, 0x00, 0x00, 0x01, 0x14, 0x00, 0x00, 0x00, 0x30, 0x00, 0x00, 0x00,
  0x14, 0x00, 0x00, 0x00, 0x00, 0x00, 0x00, 0x09, 0x4c, 0x00, 0x00, 0x00,
  0xc4, 0xf4, 0xff, 0xff, 0x08, 0x00, 0x00, 0x00, 0x10, 0x00, 0x00, 0x00,
  0x01, 0x00, 0x00, 0x00, 0x80, 0xff, 0xff, 0xff, 0xff, 0xff, 0xff, 0xff,
  0x01, 0x00, 0x00, 0x00, 0xf5, 0x3a, 0xfc, 0x3c, 0x22, 0x00, 0x00, 0x00,
  0x73, 0x65, 0x71, 0x75, 0x65, 0x6e, 0x74, 0x69, 0x61, 0x6c, 0x2f, 0x6d,
  0x61, 0x78, 0x5f, 0x70, 0x6f, 0x6f, 0x6c, 0x69, 0x6e, 0x67, 0x31, 0x64,
  0x5f, 0x31, 0x2f, 0x4d, 0x61, 0x78, 0x50, 0x6f, 0x6f, 0x6c, 0x00, 0x00,
  0x04, 0x00, 0x00, 0x00, 0x01, 0x00, 0x00, 0x00, 0x0d, 0x00, 0x00, 0x00,
  0x01, 0x00, 0x00, 0x00, 0x10, 0x00, 0x00, 0x00, 0x52, 0xf5, 0xff, 0xff,
  0x00, 0x00, 0x00, 0x01, 0x14, 0x00, 0x00, 0x00, 0x34, 0x00, 0x00, 0x00,
  0x13, 0x00, 0x00, 0x00, 0x00, 0x00, 0x00, 0x09, 0x54, 0x00, 0x00, 0x00,
  0x3c, 0xf5, 0xff, 0xff, 0x08, 0x00, 0x00, 0x00, 0x14, 0x00, 0x00, 0x00,
  0x01, 0x00, 0x00, 0x00, 0x80, 0xff, 0xff, 0xff, 0xff, 0xff, 0xff, 0xff,
  0x00, 0x00, 0x00, 0x00, 0x01, 0x00, 0x00, 0x00, 0xf5, 0x3a, 0xfc, 0x3c,
  0x26, 0x00, 0x00, 0x00, 0x73, 0x65, 0x71, 0x75, 0x65, 0x6e, 0x74, 0x69,
  0x61, 0x6c, 0x2f, 0x6d, 0x61, 0x78, 0x5f, 0x70, 0x6f, 0x6f, 0x6c, 0x69,
  0x6e, 0x67, 0x31, 0x64, 0x5f, 0x31, 0x2f, 0x45, 0x78, 0x70, 0x61, 0x6e,
  0x64, 0x44, 0x69, 0x6d, 0x73, 0x31, 0x00, 0x00, 0x04, 0x00, 0x00, 0x00,
  0x01, 0x00, 0x00, 0x00, 0x19, 0x00, 0x00, 0x00, 0x01, 0x00, 0x00, 0x00,
  0x10, 0x00, 0x00, 0x00, 0xd2, 0xf5, 0xff, 0xff, 0x00, 0x00, 0x00, 0x01,
  0x14, 0x00, 0x00, 0x00, 0x34, 0x00, 0x00, 0x00, 0x12, 0x00, 0x00, 0x00,
  0x00, 0x00, 0x00, 0x09, 0xcc, 0x00, 0x00, 0x00, 0xbc, 0xf5, 0xff, 0xff,
  0x08, 0x00, 0x00, 0x00, 0x14, 0x00, 0x00, 0x00, 0x01, 0x00, 0x00, 0x00,
  0x80, 0xff, 0xff, 0xff, 0xff, 0xff, 0xff, 0xff, 0x00, 0x00, 0x00, 0x00,
  0x01, 0x00, 0x00, 0x00, 0xf5, 0x3a, 0xfc, 0x3c, 0x9d, 0x00, 0x00, 0x00,
  0x73, 0x65, 0x71, 0x75, 0x65, 0x6e, 0x74, 0x69, 0x61, 0x6c, 0x2f, 0x63,
  0x6f, 0x6e, 0x76, 0x31, 0x64, 0x5f, 0x31, 0x2f, 0x52, 0x65, 0x6c, 0x75,
  0x3b, 0x73, 0x65, 0x71, 0x75, 0x65, 0x6e, 0x74, 0x69, 0x61, 0x6c, 0x2f,
  0x63, 0x6f, 0x6e, 0x76, 0x31, 0x64, 0x5f, 0x31, 0x2f, 0x42, 0x69, 0x61,
  0x73, 0x41, 0x64, 0x64, 0x3b, 0x73, 0x65, 0x71, 0x75, 0x65, 0x6e, 0x74,
  0x69, 0x61, 0x6c, 0x2f, 0x63, 0x6f, 0x6e, 0x76, 0x31, 0x64, 0x5f, 0x31,
  0x2f, 0x43, 0x6f, 0x6e, 0x76, 0x31, 0x44, 0x2f, 0x53, 0x71, 0x75, 0x65,
  0x65, 0x7a, 0x65, 0x3b, 0x73, 0x65, 0x71, 0x75, 0x65, 0x6e, 0x74, 0x69,
  0x61, 0x6c, 0x2f, 0x63, 0x6f, 0x6e, 0x76, 0x31, 0x64, 0x5f, 0x31, 0x2f,
  0x42, 0x69, 0x61, 0x73, 0x41, 0x64, 0x64, 0x2f, 0x52, 0x65, 0x61, 0x64,
  0x56, 0x61, 0x72, 0x69, 0x61, 0x62, 0x6c, 0x65, 0x4f, 0x70, 0x3b, 0x73,
  0x65, 0x71, 0x75, 0x65, 0x6e, 0x74, 0x69, 0x61, 0x6c, 0x2f, 0x63, 0x6f,
  0x6e, 0x76, 0x31, 0x64, 0x5f, 0x31, 0x2f, 0x43, 0x6f, 0x6e, 0x76, 0x31,
  0x44, 0x00, 0x00, 0x00, 0x04, 0x00, 0x00, 0x00, 0x01, 0x00, 0x00, 0x00,
  0x01, 0x00, 0x00, 0x00, 0x19, 0x00, 0x00, 0x00, 0x10, 0x00, 0x00, 0x00,
  0xca, 0xf6, 0xff, 0xff, 0x00, 0x00, 0x00, 0x01, 0x14, 0x00, 0x00, 0x00,
  0x34, 0x00, 0x00, 0x00, 0x11, 0x00, 0x00, 0x00, 0x00, 0x00, 0x00, 0x09,
  0x54, 0x00, 0x00, 0x00, 0xb4, 0xf6, 0xff, 0xff, 0x08, 0x00, 0x00, 0x00,
  0x14, 0x00, 0x00, 0x00, 0x01, 0x00, 0x00, 0x00, 0x80, 0xff, 0xff, 0xff,
  0xff, 0xff, 0xff, 0xff, 0x00, 0x00, 0x00, 0x00, 0x01, 0x00, 0x00, 0x00,
  0x36, 0xea, 0x80, 0x3d, 0x26, 0x00, 0x00, 0x00, 0x73, 0x65, 0x71, 0x75,
  0x65, 0x6e, 0x74, 0x69, 0x61, 0x6c, 0x2f, 0x63, 0x6f, 0x6e, 0x76, 0x31,
  0x64, 0x5f, 0x31, 0x2f, 0x43, 0x6f, 0x6e, 0x76, 0x31, 0x44, 0x2f, 0x45,
  0x78, 0x70, 0x61, 0x6e, 0x64, 0x44, 0x69, 0x6d, 0x73, 0x31, 0x00, 0x00,
  0x04, 0x00, 0x00, 0x00, 0x01, 0x00, 0x00, 0x00, 0x01, 0x00, 0x00, 0x00,
  0x19, 0x00, 0x00, 0x00, 0x08, 0x00, 0x00, 0x00, 0x4a, 0xf7, 0xff, 0xff,
  0x00, 0x00, 0x00, 0x01, 0x14, 0x00, 0x00, 0x00, 0x30, 0x00, 0x00, 0x00,
  0x10, 0x00, 0x00, 0x00, 0x00, 0x00, 0x00, 0x09, 0x4c, 0x00, 0x00, 0x00,
  0x34, 0xf7, 0xff, 0xff, 0x08, 0x00, 0x00, 0x00, 0x10, 0x00, 0x00, 0x00,
  0x01, 0x00, 0x00, 0x00, 0x80, 0xff, 0xff, 0xff, 0xff, 0xff, 0xff, 0xff,
  0x01, 0x00, 0x00, 0x00, 0x36, 0xea, 0x80, 0x3d, 0x20, 0x00, 0x00, 0x00,
  0x73, 0x65, 0x71, 0x75, 0x65, 0x6e, 0x74, 0x69, 0x61, 0x6c, 0x2f, 0x6d,
  0x61, 0x78, 0x5f, 0x70, 0x6f, 0x6f, 0x6c, 0x69, 0x6e, 0x67, 0x31, 0x64,
  0x2f, 0x4d, 0x61, 0x78, 0x50, 0x6f, 0x6f, 0x6c, 0x00, 0x00, 0x00, 0x00,
  0x04, 0x00, 0x00, 0x00, 0x01, 0x00, 0x00, 0x00, 0x19, 0x00, 0x00, 0x00,
  0x01, 0x00, 0x00, 0x00, 0x08, 0x00, 0x00, 0x00, 0xc2, 0xf7, 0xff, 0xff,
  0x00, 0x00, 0x00, 0x01, 0x14, 0x00, 0x00, 0x00, 0x34, 0x00, 0x00, 0x00,
  0x0f, 0x00, 0x00, 0x00, 0x00, 0x00, 0x00, 0x09, 0x54, 0x00, 0x00, 0x00,
  0xac, 0xf7, 0xff, 0xff, 0x08, 0x00, 0x00, 0x00, 0x14, 0x00, 0x00, 0x00,
  0x01, 0x00, 0x00, 0x00, 0x80, 0xff, 0xff, 0xff, 0xff, 0xff, 0xff, 0xff,
  0x00, 0x00, 0x00, 0x00, 0x01, 0x00, 0x00, 0x00, 0x36, 0xea, 0x80, 0x3d,
  0x24, 0x00, 0x00, 0x00, 0x73, 0x65, 0x71, 0x75, 0x65, 0x6e, 0x74, 0x69,
  0x61, 0x6c, 0x2f, 0x6d, 0x61, 0x78, 0x5f, 0x70, 0x6f, 0x6f, 0x6c, 0x69,
  0x6e, 0x67, 0x31, 0x64, 0x2f, 0x45, 0x78, 0x70, 0x61, 0x6e, 0x64, 0x44,
  0x69, 0x6d, 0x73, 0x31, 0x00, 0x00, 0x00, 0x00, 0x04, 0x00, 0x00, 0x00,
  0x01, 0x00, 0x00, 0x00, 0x32, 0x00, 0x00, 0x00, 0x01, 0x00, 0x00, 0x00,
  0x08, 0x00, 0x00, 0x00, 0x42, 0xf8, 0xff, 0xff, 0x00, 0x00, 0x00, 0x01,
  0x14, 0x00, 0x00, 0x00, 0x30, 0x00, 0x00, 0x00, 0x0e, 0x00, 0x00, 0x00,
  0x00, 0x00, 0x00, 0x09, 0xbc, 0x00, 0x00, 0x00, 0x2c, 0xf8, 0xff, 0xff,
  0x08, 0x00, 0x00, 0x00, 0x10, 0x00, 0x00, 0x00, 0x01, 0x00, 0x00, 0x00,
  0x80, 0xff, 0xff, 0xff, 0xff, 0xff, 0xff, 0xff, 0x01, 0x00, 0x00, 0x00,
  0x36, 0xea, 0x80, 0x3d, 0x93, 0x00, 0x00, 0x00, 0x73, 0x65, 0x71, 0x75,
  0x65, 0x6e, 0x74, 0x69, 0x61, 0x6c, 0x2f, 0x63, 0x6f, 0x6e, 0x76, 0x31,
  0x64, 0x2f, 0x52, 0x65, 0x6c, 0x75, 0x3b, 0x73, 0x65, 0x71, 0x75, 0x65,
  0x6e, 0x74, 0x69, 0x61, 0x6c, 0x2f, 0x63, 0x6f, 0x6e, 0x76, 0x31, 0x64,
  0x2f, 0x42, 0x69, 0x61, 0x73, 0x41, 0x64, 0x64, 0x3b, 0x73, 0x65, 0x71,
  0x75, 0x65, 0x6e, 0x74, 0x69, 0x61, 0x6c, 0x2f, 0x63, 0x6f, 0x6e, 0x76,
  0x31, 0x64, 0x2f, 0x43, 0x6f, 0x6e, 0x76, 0x31, 0x44, 0x2f, 0x53, 0x71,
  0x75, 0x65, 0x65, 0x7a, 0x65, 0x3b, 0x73, 0x65, 0x71, 0x75, 0x65, 0x6e,
  0x74, 0x69, 0x61, 0x6c, 0x2f, 0x63, 0x6f, 0x6e, 0x76, 0x31, 0x64, 0x2f,
  0x42, 0x69, 0x61, 0x73, 0x41, 0x64, 0x64, 0x2f, 0x52, 0x65, 0x61, 0x64,
  0x56, 0x61, 0x72, 0x69, 0x61, 0x62, 0x6c, 0x65, 0x4f, 0x70, 0x3b, 0x73,
  0x65, 0x71, 0x75, 0x65, 0x6e, 0x74, 0x69, 0x61, 0x6c, 0x2f, 0x63, 0x6f,
  0x6e, 0x76, 0x31, 0x64, 0x2f, 0x43, 0x6f, 0x6e, 0x76, 0x31, 0x44, 0x00,
  0x04, 0x00, 0x00, 0x00, 0x01, 0x00, 0x00, 0x00, 0x01, 0x00, 0x00, 0x00,
  0x32, 0x00, 0x00, 0x00, 0x08, 0x00, 0x00, 0x00, 0x2a, 0xf9, 0xff, 0xff,
  0x00, 0x00, 0x00, 0x01, 0x14, 0x00, 0x00, 0x00, 0x34, 0x00, 0x00, 0x00,
  0x0d, 0x00, 0x00, 0x00, 0x00, 0x00, 0x00, 0x09, 0x54, 0x00, 0x00, 0x00,
  0x14, 0xf9, 0xff, 0xff, 0x08, 0x00, 0x00, 0x00, 0x14, 0x00, 0x00, 0x00,
  0x01, 0x00, 0x00, 0x00, 0x04, 0x00, 0x00, 0x00, 0x00, 0x00, 0x00, 0x00,
  0x00, 0x00, 0x00, 0x00, 0x01, 0x00, 0x00, 0x00, 0x79, 0x21, 0x59, 0x3d,
  0x24, 0x00, 0x00, 0x00, 0x73, 0x65, 0x71, 0x75, 0x65, 0x6e, 0x74, 0x69,
  0x61, 0x6c, 0x2f, 0x63, 0x6f, 0x6e, 0x76, 0x31, 0x64, 0x2f, 0x43, 0x6f,
  0x6e, 0x76, 0x31, 0x44, 0x2f, 0x45, 0x78, 0x70, 0x61, 0x6e, 0x64, 0x44,
  0x69, 0x6d, 0x73, 0x31, 0x00, 0x00, 0x00, 0x00, 0x04, 0x00, 0x00, 0x00,
  0x01, 0x00, 0x00, 0x00, 0x01, 0x00, 0x00, 0x00, 0x32, 0x00, 0x00, 0x00,
  0x0d, 0x00, 0x00, 0x00, 0xaa, 0xf9, 0xff, 0xff, 0x00, 0x00, 0x00, 0x01,
  0x14, 0x00, 0x00, 0x00, 0x88, 0x00, 0x00, 0x00, 0x0c, 0x00, 0x00, 0x00,
  0x00, 0x00, 0x00, 0x09, 0x9c, 0x00, 0x00, 0x00, 0x94, 0xf9, 0xff, 0xff,
  0x08, 0x00, 0x00, 0x00, 0x4c, 0x00, 0x00, 0x00, 0x08, 0x00, 0x00, 0x00,
  0x00, 0x00, 0x00, 0x00, 0x00, 0x00, 0x00, 0x00, 0x00, 0x00, 0x00, 0x00,
  0x00, 0x00, 0x00, 0x00, 0x00, 0x00, 0x00, 0x00, 0x00, 0x00, 0x00, 0x00,
  0x00, 0x00, 0x00, 0x00, 0x00, 0x00, 0x00, 0x00, 0x00, 0x00, 0x00, 0x00,
  0x00, 0x00, 0x00, 0x00, 0x00, 0x00, 0x00, 0x00, 0x00, 0x00, 0x00, 0x00,
  0x00, 0x00, 0x00, 0x00, 0x00, 0x00, 0x00, 0x00, 0x00, 0x00, 0x00, 0x00,
  0x00, 0x00, 0x00, 0x00, 0x00, 0x00, 0x00, 0x00, 0x08, 0x00, 0x00, 0x00,
  0xa6, 0xca, 0xeb, 0x3b, 0x92, 0x37, 0x4c, 0x3c, 0x17, 0x24, 0xca, 0x3b,
  0x02, 0xac, 0x8f, 0x3c, 0xb7, 0x37, 0xde, 0x3b, 0xa5, 0x67, 0xc2, 0x3b,
  0xdf, 0x66, 0xbd, 0x3b, 0x9d, 0x80, 0xbb, 0x3b, 0x18, 0x00, 0x00, 0x00,
  0x73, 0x65, 0x71, 0x75, 0x65, 0x6e, 0x74, 0x69, 0x61, 0x6c, 0x2f, 0x63,
  0x6f, 0x6e, 0x76, 0x31, 0x64, 0x2f, 0x43, 0x6f, 0x6e, 0x76, 0x31, 0x44,
  0x00, 0x00, 0x00, 0x00, 0x04, 0x00, 0x00, 0x00, 0x08, 0x00, 0x00, 0x00,
  0x01, 0x00, 0x00, 0x00, 0x03, 0x00, 0x00, 0x00, 0x0d, 0x00, 0x00, 0x00,
  0x72, 0xfa, 0xff, 0xff, 0x00, 0x00, 0x00, 0x01, 0x14, 0x00, 0x00, 0x00,
  0x84, 0x00, 0x00, 0x00, 0x0b, 0x00, 0x00, 0x00, 0x00, 0x00, 0x00, 0x02,
  0xa8, 0x00, 0x00, 0x00, 0x5c, 0xfa, 0xff, 0xff, 0x08, 0x00, 0x00, 0x00,
  0x48, 0x00, 0x00, 0x00, 0x08, 0x00, 0x00, 0x00, 0x00, 0x00, 0x00, 0x00,
  0x00, 0x00, 0x00, 0x00, 0x00, 0x00, 0x00, 0x00, 0x00, 0x00, 0x00, 0x00,
  0x00, 0x00, 0x00, 0x00, 0x00, 0x00, 0x00, 0x00, 0x00, 0x00, 0x00, 0x00,
  0x00, 0x00, 0x00, 0x00, 0x00, 0x00, 0x00, 0x00, 0x00, 0x00, 0x00, 0x00,
  0x00, 0x00, 0x00, 0x00, 0x00, 0x00, 0x00, 0x00, 0x00, 0x00, 0x00, 0x00,
  0x00, 0x00, 0x00, 0x00, 0x00, 0x00, 0x00, 0x00, 0x00, 0x00, 0x00, 0x00,
  0x08, 0x00, 0x00, 0x00, 0x9b, 0xfd, 0xc7, 0x39, 0xce, 0x35, 0x2d, 0x3a,
  0x06, 0x73, 0xab, 0x39, 0x2e, 0xb7, 0x73, 0x3a, 0x48, 0x7a, 0xbc, 0x39,
  0x46, 0xe3, 0xa4, 0x39, 0xf7, 0xa4, 0xa0, 0x39, 0x89, 0x08, 0x9f, 0x39,
  0x28, 0x00, 0x00, 0x00, 0x73, 0x65, 0x71, 0x75, 0x65, 0x6e, 0x74, 0x69,
  0x61, 0x6c, 0x2f, 0x63, 0x6f, 0x6e, 0x76, 0x31, 0x64, 0x2f, 0x42, 0x69,
  0x61, 0x73, 0x41, 0x64, 0x64, 0x2f, 0x52, 0x65, 0x61, 0x64, 0x56, 0x61,
  0x72, 0x69, 0x61, 0x62, 0x6c, 0x65, 0x4f, 0x70, 0x00, 0x00, 0x00, 0x00,
  0x01, 0x00, 0x00, 0x00, 0x08, 0x00, 0x00, 0x00, 0x3a, 0xfb, 0xff, 0xff,
  0x00, 0x00, 0x00, 0x01, 0x14, 0x00, 0x00, 0x00, 0xe8, 0x00, 0x00, 0x00,
  0x0a, 0x00, 0x00, 0x00, 0x00, 0x00, 0x00, 0x09, 0xfc, 0x00, 0x00, 0x00,
  0x24, 0xfb, 0xff, 0xff, 0x08, 0x00, 0x00, 0x00, 0x8c, 0x00, 0x00, 0x00,
  0x10, 0x00, 0x00, 0x00, 0x00, 0x00, 0x00, 0x00, 0x00, 0x00, 0x00, 0x00,
  0x00, 0x00, 0x00, 0x00, 0x00, 0x00, 0x00, 0x00, 0x00, 0x00, 0x00, 0x00,
  0x00, 0x00, 0x00, 0x00, 0x00, 0x00, 0x00, 0x00, 0x00, 0x00, 0x00, 0x00,
  0x00, 0x00, 0x00, 0x00, 0x00, 0x00, 0x00, 0x00, 0x00, 0x00, 0x00, 0x00,
  0x00, 0x00, 0x00, 0x00, 0x00, 0x00, 0x00, 0x00, 0x00, 0x00, 0x00, 0x00,
  0x00, 0x00, 0x00, 0x00, 0x00, 0x00, 0x00, 0x00, 0x00, 0x00, 0x00, 0x00,
  0x00, 0x00, 0x00, 0x00, 0x00, 0x00, 0x00, 0x00, 0x00, 0x00, 0x00, 0x00,
  0x00, 0x00, 0x00, 0x00, 0x00, 0x00, 0x00, 0x00, 0x00, 0x00, 0x00, 0x00,
  0x00, 0x00, 0x00, 0x00, 0x00, 0x00, 0x00, 0x00, 0x00, 0x00, 0x00, 0x00,
  0x00, 0x00, 0x00, 0x00, 0x00, 0x00, 0x00, 0x00, 0x00, 0x00, 0x00, 0x00,
  0x00, 0x00, 0x00, 0x00, 0x00, 0x00, 0x00, 0x00, 0x00, 0x00, 0x00, 0x00,
  0x00, 0x00, 0x00, 0x00, 0x10, 0x00, 0x00, 0x00, 0x28, 0x01, 0x61, 0x3d,
  0xa2, 0xf4, 0x52, 0x3b, 0x5d, 0x74, 0x89, 0x3d, 0xd7, 0x38, 0xe5, 0x3c,
  0x8f, 0x10, 0x1e, 0x3d, 0x7b, 0x79, 0xe1, 0x3c, 0x6b, 0x03, 0x09, 0x3d,
  0xcb, 0x06, 0x91, 0x3c, 0x3d, 0xe3, 0x53, 0x3d, 0xcf, 0x48, 0x7e, 0x3d,
  0x24, 0x16, 0x30, 0x3d, 0xb2, 0xf9, 0xef, 0x3b, 0x9a, 0x21, 0x49, 0x3d,
  0x6b, 0xc7, 0x22, 0x3d, 0xd6, 0xb4, 0xa0, 0x3b, 0x0c, 0x83, 0x2b, 0x3c,
  0x1a, 0x00, 0x00, 0x00, 0x73, 0x65, 0x71, 0x75, 0x65, 0x6e, 0x74, 0x69,
  0x61, 0x6c, 0x2f, 0x63, 0x6f, 0x6e, 0x76, 0x31, 0x64, 0x5f, 0x31, 0x2f,
  0x43, 0x6f, 0x6e, 0x76, 0x31, 0x44, 0x00, 0x00, 0x04, 0x00, 0x00, 0x00,
  0x10, 0x00, 0x00, 0x00, 0x01, 0x00, 0x00, 0x00, 0x03, 0x00, 0x00, 0x00,
  0x08, 0x00, 0x00, 0x00, 0x62, 0xfc, 0xff, 0xff, 0x00, 0x00, 0x00, 0x01,
  0x14, 0x00, 0x00, 0x00, 0xe4, 0x00, 0x00, 0x00, 0x09, 0x00, 0x00, 0x00,
  0x00, 0x00, 0x00, 0x02, 0x08, 0x01, 0x00, 0x00, 0x4c, 0xfc, 0xff, 0xff,
  0x08, 0x00, 0x00, 0x00, 0x88, 0x00, 0x00, 0x00, 0x10, 0x00, 0x00, 0x00,
  0x00, 0x00, 0x00, 0x00, 0x00, 0x00, 0x00, 0x00, 0x00, 0x00, 0x00, 0x00,
  0x00, 0x00, 0x00, 0x00, 0x00, 0x00, 0x00, 0x00, 0x00, 0x00, 0x00, 0x00,
  0x00, 0x00, 0x00, 0x00, 0x00, 0x00, 0x00, 0x00, 0x00, 0x00, 0x00, 0x00,
  0x00, 0x00, 0x00, 0x00, 0x00, 0x00, 0x00, 0x00, 0x00, 0x00, 0x00, 0x00,
  0x00, 0x00, 0x00, 0x00, 0x00, 0x00, 0x00, 0x00, 0x00, 0x00, 0x00, 0x00,
  0x00, 0x00, 0x00, 0x00, 0x00, 0x00, 0x00, 0x00, 0x00, 0x00, 0x00, 0x00,
  0x00, 0x00, 0x00, 0x00, 0x00, 0x00, 0x00, 0x00, 0x00, 0x00, 0x00, 0x00,
  0x00, 0x00, 0x00, 0x00, 0x00, 0x00, 0x00, 0x00, 0x00, 0x00, 0x00, 0x00,
  0x00, 0x00, 0x00, 0x00, 0x00, 0x00, 0x00, 0x00, 0x00, 0x00, 0x00, 0x00,
  0x00, 0x00, 0x00, 0x00, 0x00, 0x00, 0x00, 0x00, 0x00, 0x00, 0x00, 0x00,
  0x00, 0x00, 0x00, 0x00, 0x00, 0x00, 0x00, 0x00, 0x10, 0x00, 0x00, 0x00,
  0xdd, 0x9c, 0x62, 0x3b, 0xa2, 0x76, 0x54, 0x39, 0xe0, 0x6f, 0x8a, 0x3b,
  0x44, 0xdc, 0xe6, 0x3a, 0xc8, 0x31, 0x1f, 0x3b, 0x0c, 0x16, 0xe3, 0x3a,
  0x1f, 0xfe, 0x09, 0x3b, 0x29, 0x10, 0x92, 0x3a, 0xf2, 0x66, 0x55, 0x3b,
  0x0c, 0x0d, 0x80, 0x3b, 0x57, 0x58, 0x31, 0x3b, 0xcc, 0xb0, 0xf1, 0x39,
  0xa0, 0x91, 0x4a, 0x3b, 0x44, 0xf1, 0x23, 0x3b, 0xe4, 0xda, 0xa1, 0x39,
  0xe0, 0xbc, 0x2c, 0x3a, 0x2a, 0x00, 0x00, 0x00, 0x73, 0x65, 0x71, 0x75,
  0x65, 0x6e, 0x74, 0x69, 0x61, 0x6c, 0x2f, 0x63, 0x6f, 0x6e, 0x76, 0x31,
  0x64, 0x5f, 0x31, 0x2f, 0x42, 0x69, 0x61, 0x73, 0x41, 0x64, 0x64, 0x2f,
  0x52, 0x65, 0x61, 0x64, 0x56, 0x61, 0x72, 0x69, 0x61, 0x62, 0x6c, 0x65,
  0x4f, 0x70, 0x00, 0x00, 0x01, 0x00, 0x00, 0x00, 0x10, 0x00, 0x00, 0x00,
  0x8a, 0xfd, 0xff, 0xff, 0x00, 0x00, 0x00, 0x01, 0x14, 0x00, 0x00, 0x00,
  0x30, 0x00, 0x00, 0x00, 0x08, 0x00, 0x00, 0x00, 0x00, 0x00, 0x00, 0x09,
  0x44, 0x00, 0x00, 0x00, 0x74, 0xfd, 0xff, 0xff, 0x08, 0x00, 0x00, 0x00,
  0x10, 0x00, 0x00, 0x00, 0x01, 0x00, 0x00, 0x00, 0x00, 0x00, 0x00, 0x00,
  0x00, 0x00, 0x00, 0x00, 0x01, 0x00, 0x00, 0x00, 0x74, 0x90, 0x04, 0x3d,
  0x18, 0x00, 0x00, 0x00, 0x73, 0x65, 0x71, 0x75, 0x65, 0x6e, 0x74, 0x69,
  0x61, 0x6c, 0x2f, 0x79, 0x5f, 0x70, 0x72, 0x65, 0x64, 0x2f, 0x4d, 0x61,
  0x74, 0x4d, 0x75, 0x6c, 0x00, 0x00, 0x00, 0x00, 0x02, 0x00, 0x00, 0x00,
  0x05, 0x00, 0x00, 0x00, 0xd0, 0x00, 0x00, 0x00, 0xf2, 0xfd, 0xff, 0xff,
  0x00, 0x00, 0x00, 0x01, 0x14, 0x00, 0x00, 0x00, 0x34, 0x00, 0x00, 0x00,
  0x07, 0x00, 0x00, 0x00, 0x00, 0x00, 0x00, 0x02, 0x58, 0x00, 0x00, 0x00,
  0xdc, 0xfd, 0xff, 0xff, 0x08, 0x00, 0x00, 0x00, 0x14, 0x00, 0x00, 0x00,
  0x01, 0x00, 0x00, 0x00, 0x00, 0x00, 0x00, 0x00, 0x00, 0x00, 0x00, 0x00,
  0x00, 0x00, 0x00, 0x00, 0x01, 0x00, 0x00, 0x00, 0xba, 0x9c, 0x82, 0x3a,
  0x28, 0x00, 0x00, 0x00, 0x73, 0x65, 0x71, 0x75, 0x65, 0x6e, 0x74, 0x69,
  0x61, 0x6c, 0x2f, 0x79, 0x5f, 0x70, 0x72, 0x65, 0x64, 0x2f, 0x42, 0x69,
  0x61, 0x73, 0x41, 0x64, 0x64, 0x2f, 0x52, 0x65, 0x61, 0x64, 0x56, 0x61,
  0x72, 0x69, 0x61, 0x62, 0x6c, 0x65, 0x4f, 0x70, 0x00, 0x00, 0x00, 0x00,
  0x01, 0x00, 0x00, 0x00, 0x05, 0x00, 0x00, 0x00, 0x6a, 0xfe, 0xff, 0xff,
  0x00, 0x00, 0x00, 0x01, 0x14, 0x00, 0x00, 0x00, 0x14, 0x00, 0x00, 0x00,
  0x06, 0x00, 0x00, 0x00, 0x00, 0x00, 0x00, 0x02, 0x28, 0x00, 0x00, 0x00,
  0xc0, 0xfe, 0xff, 0xff, 0x18, 0x00, 0x00, 0x00, 0x73, 0x65, 0x71, 0x75,
  0x65, 0x6e, 0x74, 0x69, 0x61, 0x6c, 0x2f, 0x66, 0x6c, 0x61, 0x74, 0x74,
  0x65, 0x6e, 0x2f, 0x43, 0x6f, 0x6e, 0x73, 0x74, 0x00, 0x00, 0x00, 0x00,
  0x01, 0x00, 0x00, 0x00, 0x02, 0x00, 0x00, 0x00, 0xb2, 0xfe, 0xff, 0xff,
  0x00, 0x00, 0x00, 0x01, 0x14, 0x00, 0x00, 0x00, 0x14, 0x00, 0x00, 0x00,
  0x05, 0x00, 0x00, 0x00, 0x00, 0x00, 0x00, 0x02, 0x34, 0x00, 0x00, 0x00,
  0x08, 0xff, 0xff, 0xff, 0x25, 0x00, 0x00, 0x00, 0x73, 0x65, 0x71, 0x75,
  0x65, 0x6e, 0x74, 0x69, 0x61, 0x6c, 0x2f, 0x6d, 0x61, 0x78, 0x5f, 0x70,
  0x6f, 0x6f, 0x6c, 0x69, 0x6e, 0x67, 0x31, 0x64, 0x5f, 0x31, 0x2f, 0x45,
  0x78, 0x70, 0x61, 0x6e, 0x64, 0x44, 0x69, 0x6d, 0x73, 0x00, 0x00, 0x00,
  0x01, 0x00, 0x00, 0x00, 0x04, 0x00, 0x00, 0x00, 0x06, 0xff, 0xff, 0xff,
  0x00, 0x00, 0x00, 0x01, 0x14, 0x00, 0x00, 0x00, 0x14, 0x00, 0x00, 0x00,
  0x04, 0x00, 0x00, 0x00, 0x00, 0x00, 0x00, 0x02, 0x34, 0x00, 0x00, 0x00,
  0x5c, 0xff, 0xff, 0xff, 0x25, 0x00, 0x00, 0x00, 0x73, 0x65, 0x71, 0x75,
  0x65, 0x6e, 0x74, 0x69, 0x61, 0x6c, 0x2f, 0x63, 0x6f, 0x6e, 0x76, 0x31,
  0x64, 0x5f, 0x31, 0x2f, 0x43, 0x6f, 0x6e, 0x76, 0x31, 0x44, 0x2f, 0x45,
  0x78, 0x70, 0x61, 0x6e, 0x64, 0x44, 0x69, 0x6d, 0x73, 0x00, 0x00, 0x00,
  0x01, 0x00, 0x00, 0x00, 0x04, 0x00, 0x00, 0x00, 0x5a, 0xff, 0xff, 0xff,
  0x00, 0x00, 0x00, 0x01, 0x14, 0x00, 0x00, 0x00, 0x14, 0x00, 0x00, 0x00,
  0x03, 0x00, 0x00, 0x00, 0x00, 0x00, 0x00, 0x02, 0x30, 0x00, 0x00, 0x00,
  0xb0, 0xff, 0xff, 0xff, 0x23, 0x00, 0x00, 0x00, 0x73, 0x65, 0x71, 0x75,
  0x65, 0x6e, 0x74, 0x69, 0x61, 0x6c, 0x2f, 0x6d, 0x61, 0x78, 0x5f, 0x70,
  0x6f, 0x6f, 0x6c, 0x69, 0x6e, 0x67, 0x31, 0x64, 0x2f, 0x45, 0x78, 0x70,
  0x61, 0x6e, 0x64, 0x44, 0x69, 0x6d, 0x73, 0x00, 0x01, 0x00, 0x00, 0x00,
  0x04, 0x00, 0x00, 0x00, 0xaa, 0xff, 0xff, 0xff, 0x00, 0x00, 0x00, 0x01,
  0x18, 0x00, 0x00, 0x00, 0x18, 0x00, 0x00, 0x00, 0x02, 0x00, 0x00, 0x00,
  0x00, 0x00, 0x00, 0x02, 0x34, 0x00, 0x00, 0x00, 0x04, 0x00, 0x04, 0x00,
  0x04, 0x00, 0x00, 0x00, 0x23, 0x00, 0x00, 0x00, 0x73, 0x65, 0x71, 0x75,
  0x65, 0x6e, 0x74, 0x69, 0x61, 0x6c, 0x2f, 0x63, 0x6f, 0x6e, 0x76, 0x31,
  0x64, 0x2f, 0x43, 0x6f, 0x6e, 0x76, 0x31, 0x44, 0x2f, 0x45, 0x78, 0x70,
  0x61, 0x6e, 0x64, 0x44, 0x69, 0x6d, 0x73, 0x00, 0x01, 0x00, 0x00, 0x00,
  0x04, 0x00, 0x00, 0x00, 0x00, 0x00, 0x16, 0x00, 0x1c, 0x00, 0x18, 0x00,
  0x17, 0x00, 0x10, 0x00, 0x0c, 0x00, 0x08, 0x00, 0x00, 0x00, 0x00, 0x00,
  0x00, 0x00, 0x07, 0x00, 0x16, 0x00, 0x00, 0x00, 0x00, 0x00, 0x00, 0x01,
  0x20, 0x00, 0x00, 0x00, 0x3c, 0x00, 0x00, 0x00, 0x01, 0x00, 0x00, 0x00,
  0x00, 0x00, 0x00, 0x09, 0x48, 0x00, 0x00, 0x00, 0x0c, 0x00, 0x0c, 0x00,
  0x00, 0x00, 0x00, 0x00, 0x08, 0x00, 0x04, 0x00, 0x0c, 0x00, 0x00, 0x00,
  0x08, 0x00, 0x00, 0x00, 0x10, 0x00, 0x00, 0x00, 0x01, 0x00, 0x00, 0x00,
  0x04, 0x00, 0x00, 0x00, 0x00, 0x00, 0x00, 0x00, 0x01, 0x00, 0x00, 0x00,
  0x79, 0x21, 0x59, 0x3d, 0x13, 0x00, 0x00, 0x00, 0x73, 0x65, 0x72, 0x76,
  0x69, 0x6e, 0x67, 0x5f, 0x64, 0x65, 0x66, 0x61, 0x75, 0x6c, 0x74, 0x5f,
  0x78, 0x3a, 0x30, 0x00, 0x02, 0x00, 0x00, 0x00, 0x01, 0x00, 0x00, 0x00,
  0x8a, 0x02, 0x00, 0x00, 0x05, 0x00, 0x00, 0x00, 0x6c, 0x00, 0x00, 0x00,
  0x4c, 0x00, 0x00, 0x00, 0x2c, 0x00, 0x00, 0x00, 0x18, 0x00, 0x00, 0x00,
  0x04, 0x00, 0x00, 0x00, 0xd0, 0xff, 0xff, 0xff, 0x19, 0x00, 0x00, 0x00,
  0x02, 0x00, 0x00, 0x00, 0x00, 0x00, 0x00, 0x19, 0xe0, 0xff, 0xff, 0xff,
  0x09, 0x00, 0x00, 0x00, 0x04, 0x00, 0x00, 0x00, 0x00, 0x00, 0x00, 0x09,
  0xf0, 0xff, 0xff, 0xff, 0x11, 0x00, 0x00, 0x00, 0x02, 0x00, 0x00, 0x00,
  0x00, 0x00, 0x00, 0x11, 0x0c, 0x00, 0x10, 0x00, 0x0f, 0x00, 0x00, 0x00,
  0x08, 0x00, 0x04, 0x00, 0x0c, 0x00, 0x00, 0x00, 0x03, 0x00, 0x00, 0x00,
  0x03, 0x00, 0x00, 0x00, 0x00, 0x00, 0x00, 0x03, 0x0c, 0x00, 0x0c, 0x00,
  0x0b, 0x00, 0x00, 0x00, 0x00, 0x00, 0x04, 0x00, 0x0c, 0x00, 0x00, 0x00,
  0x16, 0x00, 0x00, 0x00, 0x00, 0x00, 0x00, 0x16
};
unsigned int tflite_learn_13_len = 6872;

#endif // _EI_CLASSIFIER_TFLITE_LEARN_13_H_

