/* Generated by Edge Impulse
 *
 * Permission is hereby granted, free of charge, to any person obtaining a copy
 * of this software and associated documentation files (the "Software"), to deal
 * in the Software without restriction, including without limitation the rights
 * to use, copy, modify, merge, publish, distribute, sublicense, and/or sell
 * copies of the Software, and to permit persons to whom the Software is
 * furnished to do so, subject to the following conditions:
 *
 * The above copyright notice and this permission notice shall be included in
 * all copies or substantial portions of the Software.
 *
 * THE SOFTWARE IS PROVIDED "AS IS", WITHOUT WARRANTY OF ANY KIND, EXPRESS OR
 * IMPLIED, INCLUDING BUT NOT LIMITED TO THE WARRANTIES OF MERCHANTABILITY,
 * FITNESS FOR A PARTICULAR PURPOSE AND NONINFRINGEMENT. IN NO EVENT SHALL THE
 * AUTHORS OR COPYRIGHT HOLDERS BE LIABLE FOR ANY CLAIM, DAMAGES OR OTHER
 * LIABILITY, WHETHER IN AN ACTION OF CONTRACT, TORT OR OTHERWISE, ARISING FROM,
 * OUT OF OR IN CONNECTION WITH THE SOFTWARE OR THE USE OR OTHER DEALINGS IN THE
 * SOFTWARE.
 */

#ifndef _EI_CLASSIFIER_TFLITE_LEARN_13_H_
#define _EI_CLASSIFIER_TFLITE_LEARN_13_H_

#define EI_CLASSIFIER_TFLITE_LEARN_13_ARENA_SIZE     6265
const size_t tflite_learn_13_arena_size = 6265;

#ifdef EI_CLASSIFIER_TFLITE_ARENA_SIZE
#if EI_CLASSIFIER_TFLITE_ARENA_SIZE < EI_CLASSIFIER_TFLITE_LEARN_13_ARENA_SIZE
#undef EI_CLASSIFIER_TFLITE_ARENA_SIZE
#define EI_CLASSIFIER_TFLITE_ARENA_SIZE EI_CLASSIFIER_TFLITE_LEARN_13_ARENA_SIZE
#endif // #if EI_CLASSIFIER_TFLITE_ARENA_SIZE < EI_CLASSIFIER_TFLITE_LEARN_13_ARENA_SIZE
#else
#define EI_CLASSIFIER_TFLITE_ARENA_SIZE EI_CLASSIFIER_TFLITE_LEARN_13_ARENA_SIZE
#endif // #ifdef EI_CLASSIFIER_TFLITE_ARENA_SIZE

#if defined __GNUC__
#define ALIGN(X) __attribute__((aligned(X)))
#elif defined _MSC_VER
#define ALIGN(X) __declspec(align(X))
#elif defined __TASKING__
#define ALIGN(X) __align(X)
#else
#define ALIGN(X)
#endif
ALIGN(16) const unsigned char tflite_learn_13[] = {
  0x20, 0x00, 0x00, 0x00, 0x54, 0x46, 0x4c, 0x33, 0x00, 0x00, 0x00, 0x00,
  0x14, 0x00, 0x20, 0x00, 0x1c, 0x00, 0x18, 0x00, 0x14, 0x00, 0x10, 0x00,
  0x0c, 0x00, 0x00, 0x00, 0x08, 0x00, 0x04, 0x00, 0x14, 0x00, 0x00, 0x00,
  0x1c, 0x00, 0x00, 0x00, 0x8c, 0x00, 0x00, 0x00, 0xe4, 0x00, 0x00, 0x00,
  0x08, 0x0a, 0x00, 0x00, 0x18, 0x0a, 0x00, 0x00, 0x24, 0x1a, 0x00, 0x00,
  0x03, 0x00, 0x00, 0x00, 0x01, 0x00, 0x00, 0x00, 0x10, 0x00, 0x00, 0x00,
  0x00, 0x00, 0x0a, 0x00, 0x10, 0x00, 0x0c, 0x00, 0x08, 0x00, 0x04, 0x00,
  0x0a, 0x00, 0x00, 0x00, 0x0c, 0x00, 0x00, 0x00, 0x1c, 0x00, 0x00, 0x00,
  0x3c, 0x00, 0x00, 0x00, 0x0f, 0x00, 0x00, 0x00, 0x73, 0x65, 0x72, 0x76,
  0x69, 0x6e, 0x67, 0x5f, 0x64, 0x65, 0x66, 0x61, 0x75, 0x6c, 0x74, 0x00,
  0x01, 0x00, 0x00, 0x00, 0x04, 0x00, 0x00, 0x00, 0x9c, 0xff, 0xff, 0xff,
  0x16, 0x00, 0x00, 0x00, 0x04, 0x00, 0x00, 0x00, 0x08, 0x00, 0x00, 0x00,
  0x6f, 0x75, 0x74, 0x70, 0x75, 0x74, 0x5f, 0x30, 0x00, 0x00, 0x00, 0x00,
  0x01, 0x00, 0x00, 0x00, 0x04, 0x00, 0x00, 0x00, 0xd2, 0xf5, 0xff, 0xff,
  0x04, 0x00, 0x00, 0x00, 0x01, 0x00, 0x00, 0x00, 0x78, 0x00, 0x00, 0x00,
  0x02, 0x00, 0x00, 0x00, 0x34, 0x00, 0x00, 0x00, 0x04, 0x00, 0x00, 0x00,
  0xdc, 0xff, 0xff, 0xff, 0x19, 0x00, 0x00, 0x00, 0x04, 0x00, 0x00, 0x00,
  0x13, 0x00, 0x00, 0x00, 0x43, 0x4f, 0x4e, 0x56, 0x45, 0x52, 0x53, 0x49,
  0x4f, 0x4e, 0x5f, 0x4d, 0x45, 0x54, 0x41, 0x44, 0x41, 0x54, 0x41, 0x00,
  0x08, 0x00, 0x0c, 0x00, 0x08, 0x00, 0x04, 0x00, 0x08, 0x00, 0x00, 0x00,
  0x18, 0x00, 0x00, 0x00, 0x04, 0x00, 0x00, 0x00, 0x13, 0x00, 0x00, 0x00,
  0x6d, 0x69, 0x6e, 0x5f, 0x72, 0x75, 0x6e, 0x74, 0x69, 0x6d, 0x65, 0x5f,
  0x76, 0x65, 0x72, 0x73, 0x69, 0x6f, 0x6e, 0x00, 0x1a, 0x00, 0x00, 0x00,
  0x20, 0x09, 0x00, 0x00, 0x18, 0x09, 0x00, 0x00, 0xf8, 0x08, 0x00, 0x00,
  0xd8, 0x08, 0x00, 0x00, 0xb8, 0x08, 0x00, 0x00, 0x98, 0x08, 0x00, 0x00,
  0x80, 0x08, 0x00, 0x00, 0x5c, 0x08, 0x00, 0x00, 0x3c, 0x04, 0x00, 0x00,
  0xec, 0x03, 0x00, 0x00, 0x5c, 0x02, 0x00, 0x00, 0x2c, 0x02, 0x00, 0x00,
  0xe4, 0x00, 0x00, 0x00, 0xdc, 0x00, 0x00, 0x00, 0xd4, 0x00, 0x00, 0x00,
  0xcc, 0x00, 0x00, 0x00, 0xc4, 0x00, 0x00, 0x00, 0xbc, 0x00, 0x00, 0x00,
  0xb4, 0x00, 0x00, 0x00, 0xac, 0x00, 0x00, 0x00, 0xa4, 0x00, 0x00, 0x00,
  0x9c, 0x00, 0x00, 0x00, 0x94, 0x00, 0x00, 0x00, 0x8c, 0x00, 0x00, 0x00,
  0x6c, 0x00, 0x00, 0x00, 0x04, 0x00, 0x00, 0x00, 0xaa, 0xf6, 0xff, 0xff,
  0x04, 0x00, 0x00, 0x00, 0x58, 0x00, 0x00, 0x00, 0x0c, 0x00, 0x00, 0x00,
  0x08, 0x00, 0x0e, 0x00, 0x08, 0x00, 0x04, 0x00, 0x08, 0x00, 0x00, 0x00,
  0x10, 0x00, 0x00, 0x00, 0x28, 0x00, 0x00, 0x00, 0x00, 0x00, 0x06, 0x00,
  0x08, 0x00, 0x04, 0x00, 0x06, 0x00, 0x00, 0x00, 0x04, 0x00, 0x00, 0x00,
  0x01, 0x00, 0x00, 0x00, 0xeb, 0x03, 0x00, 0x00, 0x00, 0x00, 0x0a, 0x00,
  0x10, 0x00, 0x0c, 0x00, 0x08, 0x00, 0x04, 0x00, 0x0a, 0x00, 0x00, 0x00,
  0x03, 0x00, 0x00, 0x00, 0x02, 0x00, 0x00, 0x00, 0x04, 0x00, 0x00, 0x00,
  0x06, 0x00, 0x00, 0x00, 0x32, 0x2e, 0x31, 0x31, 0x2e, 0x31, 0x00, 0x00,
  0x0e, 0xf7, 0xff, 0xff, 0x04, 0x00, 0x00, 0x00, 0x10, 0x00, 0x00, 0x00,
  0x31, 0x2e, 0x31, 0x34, 0x2e, 0x30, 0x00, 0x00, 0x00, 0x00, 0x00, 0x00,
  0x00, 0x00, 0x00, 0x00, 0x5c, 0xe8, 0xff, 0xff, 0x60, 0xe8, 0xff, 0xff,
  0x64, 0xe8, 0xff, 0xff, 0x68, 0xe8, 0xff, 0xff, 0x6c, 0xe8, 0xff, 0xff,
  0x70, 0xe8, 0xff, 0xff, 0x74, 0xe8, 0xff, 0xff, 0x78, 0xe8, 0xff, 0xff,
  0x7c, 0xe8, 0xff, 0xff, 0x80, 0xe8, 0xff, 0xff, 0x84, 0xe8, 0xff, 0xff,
  0x56, 0xf7, 0xff, 0xff, 0x04, 0x00, 0x00, 0x00, 0x38, 0x01, 0x00, 0x00,
  0xed, 0x7f, 0x39, 0x0f, 0x0b, 0xf5, 0xe1, 0xef, 0xca, 0xf6, 0xf9, 0x04,
  0xf7, 0xcb, 0x64, 0x6a, 0x48, 0xd7, 0x10, 0xbb, 0xbb, 0xc7, 0xe4, 0x22,
  0x05, 0x06, 0x2f, 0x5b, 0x37, 0x0d, 0xe1, 0x29, 0xd8, 0x9a, 0x01, 0x05,
  0xf1, 0x05, 0x0a, 0xae, 0x04, 0x00, 0x10, 0xe8, 0x09, 0x02, 0x18, 0x05,
  0x00, 0xfa, 0x05, 0x00, 0x33, 0x7f, 0x2c, 0x00, 0x0d, 0x0d, 0x1b, 0x02,
  0xef, 0x06, 0x04, 0xf6, 0x02, 0xad, 0xac, 0xeb, 0xf0, 0x07, 0x10, 0xfc,
  0x08, 0x0e, 0xfe, 0xff, 0xfd, 0xfc, 0x7f, 0x07, 0x06, 0xfb, 0xff, 0xff,
  0xfe, 0x05, 0xfd, 0x04, 0xfb, 0xfd, 0xfd, 0xde, 0xf6, 0xfc, 0x08, 0x00,
  0x03, 0x05, 0x02, 0xff, 0x00, 0xfb, 0xff, 0x04, 0x99, 0xf8, 0xfe, 0x02,
  0x00, 0x02, 0xfc, 0xfe, 0x01, 0xfe, 0x05, 0x05, 0xfe, 0x81, 0x0c, 0x0b,
  0xfa, 0xf4, 0xf2, 0xf4, 0x00, 0x01, 0xfe, 0x07, 0x06, 0x02, 0x20, 0xde,
  0x03, 0x06, 0x02, 0x0b, 0x0b, 0x07, 0x00, 0xfe, 0xf8, 0x02, 0x01, 0x37,
  0x2c, 0xff, 0xfa, 0x07, 0x05, 0x00, 0xf6, 0xfd, 0x03, 0x07, 0xfc, 0xf8,
  0x35, 0xb4, 0x34, 0x13, 0x04, 0x00, 0xde, 0x0b, 0x24, 0x08, 0x02, 0x0c,
  0x0d, 0x4f, 0xec, 0x34, 0xf6, 0x06, 0x07, 0xed, 0x0c, 0x04, 0xf9, 0xf6,
  0x13, 0x05, 0xe0, 0x81, 0x43, 0xfe, 0x0c, 0x01, 0x0a, 0x04, 0x06, 0x07,
  0xec, 0x20, 0x17, 0x51, 0x45, 0xfd, 0xf9, 0x10, 0x16, 0xf8, 0x86, 0x3c,
  0xdf, 0x3e, 0x18, 0x0c, 0x34, 0x2c, 0xfd, 0xd0, 0x12, 0x09, 0xf5, 0xa1,
  0xed, 0x32, 0x53, 0x29, 0xc9, 0x6e, 0x7f, 0xcb, 0x12, 0xf2, 0xfb, 0xe9,
  0xbb, 0xf3, 0x2f, 0x52, 0x0f, 0xde, 0x34, 0x50, 0x54, 0xf9, 0x8e, 0xde,
  0x22, 0xf2, 0xd1, 0x05, 0x0a, 0xf7, 0x04, 0x2d, 0x50, 0x36, 0xed, 0x8c,
  0xf3, 0x24, 0xf9, 0xdc, 0x0e, 0xee, 0x08, 0x10, 0x57, 0x71, 0x37, 0xc8,
  0x81, 0xf1, 0x1f, 0x05, 0xea, 0xf4, 0x11, 0x21, 0xf8, 0x7f, 0xc8, 0x14,
  0x56, 0xdb, 0x05, 0xab, 0x0e, 0x1c, 0x2d, 0xee, 0xde, 0xf6, 0x18, 0x55,
  0xc4, 0x3e, 0xdf, 0xf5, 0xc7, 0x29, 0x39, 0x31, 0x0b, 0xb8, 0xef, 0x7c,
  0x53, 0x85, 0xea, 0x22, 0x13, 0x3d, 0x13, 0x0b, 0x08, 0xeb, 0xc9, 0xf0,
  0x9a, 0xf8, 0xff, 0xff, 0x04, 0x00, 0x00, 0x00, 0x20, 0x00, 0x00, 0x00,
  0xe3, 0xdf, 0xff, 0xff, 0x2e, 0xf9, 0xff, 0xff, 0x0f, 0xfe, 0xff, 0xff,
  0x56, 0xfd, 0xff, 0xff, 0xf9, 0xe8, 0xff, 0xff, 0x30, 0xdc, 0xff, 0xff,
  0x5f, 0xdd, 0xff, 0xff, 0x13, 0xd7, 0xff, 0xff, 0xc6, 0xf8, 0xff, 0xff,
  0x04, 0x00, 0x00, 0x00, 0x80, 0x01, 0x00, 0x00, 0xfb, 0xd5, 0xf7, 0xc8,
  0xf0, 0x07, 0x09, 0xfb, 0x03, 0xfb, 0xfb, 0x81, 0xd0, 0x07, 0xff, 0xea,
  0x08, 0xff, 0x04, 0xd8, 0xd7, 0xfd, 0x0a, 0xd7, 0x20, 0x6a, 0x0e, 0x50,
  0x81, 0x05, 0xbb, 0x0b, 0xfc, 0xe4, 0x18, 0x0d, 0xd0, 0xce, 0xd0, 0x0f,
  0xcc, 0x73, 0x25, 0x1d, 0xd2, 0x0d, 0xa6, 0x10, 0xcf, 0xf9, 0xe4, 0xfd,
  0x01, 0x81, 0xe7, 0xd3, 0xff, 0xe9, 0xf0, 0xf9, 0x01, 0xc7, 0xeb, 0xda,
  0xf7, 0xfa, 0xc9, 0xf8, 0xe9, 0xed, 0x1e, 0xf8, 0xdb, 0xf6, 0x03, 0xfd,
  0x19, 0x81, 0x9c, 0x88, 0xf4, 0xd4, 0xfd, 0x02, 0xf6, 0xf2, 0xf5, 0xff,
  0x01, 0xc3, 0xcf, 0x06, 0x1d, 0xfb, 0x18, 0x08, 0x0e, 0xfe, 0xaf, 0x09,
  0x08, 0x1b, 0xff, 0x19, 0x0a, 0xf1, 0x9a, 0xfc, 0xf6, 0xfe, 0x02, 0x02,
  0xde, 0xf4, 0xd2, 0x81, 0x00, 0x09, 0x07, 0x12, 0x97, 0xcb, 0x10, 0xcf,
  0x12, 0xc6, 0xe7, 0xe2, 0xcf, 0xc8, 0x04, 0x02, 0x0c, 0xee, 0xf5, 0xfc,
  0xdf, 0x8b, 0x81, 0x0a, 0xd1, 0x10, 0x06, 0x27, 0x1f, 0x05, 0xd7, 0x0d,
  0xe0, 0xd8, 0xb3, 0x11, 0x04, 0xff, 0xc6, 0x05, 0xec, 0xf3, 0xb5, 0xf8,
  0xfc, 0x81, 0xb2, 0xe6, 0x0c, 0x22, 0xf2, 0x23, 0xdd, 0x81, 0xc7, 0xe8,
  0x09, 0x03, 0x06, 0x02, 0xe4, 0xfc, 0xd2, 0xd8, 0xf8, 0x06, 0xf1, 0x01,
  0xfe, 0xf6, 0xee, 0xc6, 0xb1, 0x06, 0x20, 0x07, 0xe7, 0xe5, 0x04, 0xb6,
  0x06, 0x03, 0x02, 0x19, 0xe6, 0x02, 0x00, 0xe0, 0xf8, 0xea, 0xf3, 0xec,
  0x83, 0xef, 0xfc, 0xea, 0x04, 0x81, 0xb4, 0xf1, 0x46, 0xf7, 0xc3, 0x01,
  0x0a, 0x17, 0x2f, 0x05, 0xda, 0xcc, 0xbe, 0xfe, 0xd3, 0x03, 0x05, 0x18,
  0x92, 0x81, 0xbb, 0xc6, 0x8b, 0xe5, 0xf0, 0x34, 0x05, 0xe8, 0x81, 0x01,
  0xef, 0xf6, 0x20, 0xf7, 0x15, 0xcc, 0x89, 0xf7, 0xf1, 0x02, 0xf7, 0xfb,
  0x08, 0x91, 0xe4, 0xef, 0xdd, 0x01, 0xff, 0x07, 0xca, 0xf3, 0x02, 0x00,
  0x1a, 0xc2, 0xe5, 0x00, 0x9c, 0xad, 0x0d, 0xf0, 0xf3, 0xf5, 0xd5, 0xfb,
  0xdc, 0x81, 0x07, 0x02, 0x26, 0xfa, 0xfb, 0x01, 0x00, 0xfd, 0xc6, 0x03,
  0x0a, 0xdf, 0x81, 0x86, 0xfa, 0xf6, 0xe6, 0xfb, 0xf9, 0xfb, 0x81, 0xbd,
  0xe3, 0xd9, 0xfe, 0xf4, 0x11, 0xeb, 0xa1, 0xac, 0xfe, 0xe1, 0x01, 0xf4,
  0xc6, 0x14, 0xf3, 0x02, 0x05, 0xeb, 0x01, 0xe0, 0xe3, 0xfc, 0x9b, 0x02,
  0x02, 0xfc, 0x01, 0xf7, 0x00, 0xf5, 0x81, 0xfe, 0x07, 0xff, 0xfe, 0xd3,
  0xe7, 0xf4, 0x16, 0xc8, 0x03, 0xfc, 0xfc, 0xda, 0xec, 0xca, 0xf2, 0xc1,
  0xfa, 0xff, 0xfb, 0xf1, 0xd8, 0x81, 0xe7, 0xa5, 0xfd, 0xfc, 0xf2, 0x08,
  0xe3, 0xca, 0xea, 0x81, 0xfd, 0xfc, 0xeb, 0x05, 0xd7, 0x00, 0x01, 0xff,
  0x12, 0xf9, 0xd8, 0x05, 0xf0, 0x07, 0x01, 0xfd, 0x52, 0xfa, 0xff, 0xff,
  0x04, 0x00, 0x00, 0x00, 0x40, 0x00, 0x00, 0x00, 0xb9, 0xff, 0xff, 0xff,
  0xd0, 0xf6, 0xff, 0xff, 0xdf, 0xff, 0xff, 0xff, 0x16, 0xfd, 0xff, 0xff,
  0x2d, 0xfd, 0xff, 0xff, 0x29, 0xfb, 0xff, 0xff, 0xde, 0xfc, 0xff, 0xff,
  0x3b, 0x02, 0x00, 0x00, 0x01, 0x01, 0x00, 0x00, 0x65, 0xf1, 0xff, 0xff,
  0xac, 0xff, 0xff, 0xff, 0x3c, 0x00, 0x00, 0x00, 0x72, 0xff, 0xff, 0xff,
  0xfa, 0xff, 0xff, 0xff, 0x81, 0x00, 0x00, 0x00, 0xec, 0xfd, 0xff, 0xff,
  0x9e, 0xfa, 0xff, 0xff, 0x04, 0x00, 0x00, 0x00, 0x10, 0x04, 0x00, 0x00,
  0xdd, 0x02, 0x2a, 0x04, 0x81, 0xf8, 0x9a, 0xed, 0xf8, 0x8f, 0xbc, 0x00,
  0xe3, 0xe5, 0xd7, 0xb0, 0xfe, 0xf4, 0x18, 0x04, 0xbf, 0xd8, 0xb0, 0x0b,
  0xec, 0xd3, 0x03, 0xf2, 0xff, 0xa7, 0xe0, 0xcc, 0x09, 0xf3, 0x1c, 0x01,
  0xd6, 0xd9, 0xae, 0x17, 0xe0, 0xe0, 0x11, 0xf8, 0xec, 0xd3, 0xf3, 0xe6,
  0x04, 0xf9, 0x19, 0x04, 0xd1, 0xde, 0xbf, 0x1a, 0xe5, 0xdd, 0x10, 0xf4,
  0x00, 0xde, 0xfb, 0xce, 0x08, 0xf5, 0x18, 0x03, 0xe9, 0xc7, 0xb8, 0x19,
  0xe4, 0xe9, 0x0b, 0xea, 0x03, 0x17, 0xfb, 0xcd, 0x0d, 0xef, 0x19, 0xf9,
  0xe3, 0xdc, 0xc9, 0x12, 0xf1, 0xfa, 0x1b, 0xe4, 0x04, 0x10, 0xf1, 0xd8,
  0x0b, 0xf8, 0x1a, 0x00, 0xed, 0xe1, 0xc9, 0x0e, 0xd6, 0x01, 0x11, 0xe7,
  0xf2, 0x1b, 0xe8, 0xd9, 0x12, 0xf4, 0x15, 0x0e, 0xe5, 0xbb, 0xc2, 0x0e,
  0xee, 0xeb, 0x16, 0xf6, 0xea, 0x15, 0xf1, 0xc7, 0x07, 0xed, 0x13, 0xfe,
  0xf6, 0xdb, 0xd4, 0x17, 0xf2, 0xfa, 0x14, 0xe7, 0xc9, 0x31, 0xed, 0xe2,
  0x11, 0xef, 0x13, 0x02, 0xf7, 0xde, 0xe8, 0x11, 0xed, 0xef, 0x09, 0xe1,
  0xf2, 0x2a, 0xe8, 0xef, 0x16, 0xfc, 0x1b, 0x09, 0x03, 0xf7, 0xcc, 0x01,
  0xf6, 0xf9, 0x0f, 0xe0, 0x10, 0x28, 0xe9, 0xe4, 0x01, 0x04, 0x16, 0x02,
  0xff, 0x0c, 0xf9, 0x10, 0xdf, 0xfd, 0x06, 0xf2, 0xcd, 0x29, 0xe1, 0xd3,
  0x1e, 0xf1, 0xfd, 0xdb, 0x06, 0xe5, 0x04, 0xdf, 0xf6, 0x08, 0x00, 0xf4,
  0xb6, 0x11, 0xec, 0x06, 0xed, 0xf7, 0xb1, 0xe1, 0xf5, 0xf6, 0x18, 0xfe,
  0x11, 0xfd, 0xf3, 0xfd, 0xfe, 0x04, 0xf9, 0x16, 0xfd, 0xf1, 0xf4, 0xe8,
  0x02, 0x0a, 0x12, 0x0c, 0x06, 0xfa, 0x05, 0xf9, 0xf4, 0xf3, 0x04, 0x0c,
  0x0e, 0x00, 0xf1, 0xe6, 0x13, 0xfe, 0x1b, 0x11, 0x13, 0x04, 0xf8, 0xf0,
  0xd9, 0xfc, 0x12, 0x0d, 0x0e, 0xfb, 0xe4, 0xe1, 0x0f, 0x04, 0x0d, 0x13,
  0x01, 0x04, 0x00, 0xec, 0xdc, 0xf6, 0x1a, 0xf5, 0x0e, 0xfa, 0xea, 0xd5,
  0x09, 0x05, 0x15, 0x17, 0xf4, 0xf9, 0x00, 0xd5, 0xd7, 0xf5, 0x11, 0x10,
  0x09, 0xf4, 0xf4, 0xd2, 0x0d, 0x0a, 0x14, 0x0c, 0xfa, 0xff, 0xfa, 0xc4,
  0xb2, 0xe9, 0x0c, 0x04, 0x19, 0xf8, 0xee, 0xdd, 0x11, 0x04, 0x15, 0x13,
  0xee, 0xfb, 0xf9, 0xd5, 0xc6, 0xf8, 0x10, 0x12, 0x10, 0xf1, 0xe6, 0xf2,
  0x0b, 0x05, 0x13, 0x19, 0xea, 0x04, 0x02, 0xc9, 0x9b, 0xec, 0x15, 0x03,
  0x15, 0xf4, 0xef, 0xe6, 0x10, 0xfb, 0x13, 0x11, 0xe8, 0xf9, 0xfb, 0xcc,
  0x97, 0xef, 0x15, 0x08, 0x16, 0xfd, 0x07, 0xd8, 0x0c, 0x0d, 0x1d, 0x17,
  0xd4, 0xf4, 0x02, 0xd5, 0xd3, 0xe4, 0x1c, 0x01, 0x1b, 0xf3, 0xf7, 0xec,
  0x06, 0x07, 0x11, 0x06, 0xda, 0x0b, 0xfe, 0xe1, 0xec, 0xeb, 0x17, 0x03,
  0x0a, 0xfe, 0xea, 0xfe, 0x0a, 0x0c, 0xf6, 0x0b, 0xe5, 0x05, 0xf4, 0xe3,
  0xd8, 0xde, 0x1b, 0x05, 0x05, 0x00, 0x08, 0xcf, 0xef, 0xfb, 0xdc, 0xf9,
  0xde, 0xff, 0xf3, 0xe5, 0xee, 0xf0, 0x16, 0xe3, 0xfe, 0xfe, 0xfe, 0xed,
  0xf3, 0xd6, 0xee, 0xf6, 0x0a, 0x2c, 0x06, 0x04, 0xfb, 0xee, 0xfa, 0x1f,
  0xe2, 0xf9, 0xfe, 0x02, 0x1a, 0xea, 0xe9, 0x03, 0xef, 0x1b, 0x14, 0xee,
  0xe4, 0x08, 0xfd, 0x1b, 0xea, 0xf6, 0x05, 0xfd, 0x12, 0xd4, 0x02, 0xea,
  0x0c, 0x15, 0x12, 0xee, 0xca, 0x0e, 0xeb, 0x15, 0xdc, 0xf8, 0x14, 0xf4,
  0x13, 0xe6, 0xf1, 0xf3, 0x22, 0x20, 0x0a, 0xf3, 0xd6, 0x18, 0xec, 0x16,
  0xe9, 0xf9, 0x0d, 0x04, 0x11, 0xdc, 0xf8, 0xfb, 0x24, 0x15, 0x02, 0x00,
  0xde, 0x08, 0xd3, 0x1e, 0xef, 0xf6, 0x05, 0xfe, 0x1c, 0xcb, 0xf5, 0xf4,
  0x2b, 0x18, 0x10, 0x03, 0xf0, 0x02, 0xe5, 0x20, 0xe2, 0xf8, 0x11, 0x01,
  0x0d, 0xe3, 0xfe, 0xf6, 0x27, 0x1c, 0x08, 0x14, 0xfe, 0x04, 0xdf, 0x10,
  0xd8, 0xf8, 0x10, 0xfc, 0x0f, 0xef, 0x01, 0xf9, 0x23, 0x22, 0x0e, 0x0f,
  0xf4, 0xef, 0xdb, 0x11, 0xd7, 0xfa, 0x0a, 0xf4, 0x14, 0xea, 0xf7, 0xf5,
  0x1d, 0x21, 0x06, 0x1a, 0x02, 0xfe, 0xd5, 0x0f, 0xe5, 0xf8, 0xfa, 0xfc,
  0x0e, 0xee, 0x02, 0xf1, 0x18, 0x1d, 0x07, 0x11, 0xfa, 0xfd, 0xca, 0x13,
  0xe8, 0xf6, 0x0a, 0xf3, 0x14, 0xe3, 0x05, 0xee, 0x12, 0x0b, 0x0a, 0x0d,
  0xe9, 0xfa, 0xe5, 0x10, 0xe3, 0xff, 0x09, 0xe9, 0x03, 0xc1, 0x06, 0xf2,
  0x10, 0x0c, 0x14, 0x12, 0x00, 0x02, 0xe3, 0x06, 0xe1, 0xfc, 0xfc, 0x01,
  0x00, 0xe9, 0xfc, 0xef, 0x07, 0x13, 0x06, 0x05, 0xac, 0xfc, 0xf6, 0xd2,
  0x15, 0x0b, 0x02, 0xf7, 0xe6, 0x09, 0xf5, 0xf1, 0xe6, 0xee, 0xf9, 0x00,
  0xf7, 0x0b, 0xfc, 0xfc, 0xff, 0x12, 0xe9, 0xf9, 0xea, 0xfe, 0xfe, 0xe3,
  0x06, 0xdd, 0xe3, 0xfd, 0xeb, 0x0b, 0xf0, 0xfd, 0xf3, 0x0b, 0xf3, 0xfc,
  0xf0, 0xf7, 0xfc, 0xd5, 0x06, 0xda, 0xd1, 0x05, 0xfe, 0x0a, 0xfb, 0xea,
  0xe6, 0x20, 0xf0, 0xfa, 0xce, 0x01, 0x05, 0xc7, 0xfc, 0xcd, 0xce, 0x13,
  0x02, 0x08, 0xef, 0x02, 0xda, 0x07, 0x01, 0xfc, 0xd4, 0xff, 0x03, 0xd0,
  0x00, 0xd1, 0xbc, 0x14, 0xef, 0xf7, 0xea, 0xf2, 0xd4, 0x08, 0xe3, 0xff,
  0xd5, 0xf0, 0xf2, 0xcb, 0x05, 0xcc, 0xd3, 0x09, 0xf0, 0xf0, 0xf4, 0xf6,
  0xe6, 0x0b, 0xe9, 0x00, 0xc4, 0xf3, 0xfa, 0xdb, 0x03, 0xb9, 0xcd, 0x0a,
  0xfc, 0xe7, 0xee, 0xf6, 0xcf, 0x14, 0xe6, 0x03, 0xce, 0xff, 0xf6, 0xdf,
  0x00, 0xe2, 0xd4, 0x0d, 0xfb, 0xf8, 0xe8, 0xf2, 0xd8, 0x0e, 0xff, 0xf8,
  0xdb, 0xf6, 0xe9, 0xd1, 0x09, 0xd6, 0xc4, 0x14, 0xfc, 0xf1, 0xed, 0xec,
  0xd2, 0x08, 0xf7, 0xef, 0xe3, 0xf1, 0xf6, 0xe3, 0x00, 0xf9, 0xe5, 0x0d,
  0xf0, 0xf9, 0x02, 0x03, 0xda, 0xff, 0xeb, 0xe5, 0xea, 0xf5, 0xef, 0xdf,
  0x04, 0xe8, 0xe0, 0x00, 0xe6, 0xf7, 0xeb, 0xe7, 0xe4, 0x05, 0xdb, 0xe5,
  0xe8, 0xe3, 0x08, 0xe3, 0xfb, 0xe0, 0xf4, 0x0d, 0xec, 0xee, 0xf0, 0xf8,
  0xde, 0x06, 0xf2, 0xf3, 0x00, 0xee, 0xef, 0x23, 0x07, 0xdd, 0xf3, 0x07,
  0xfa, 0xff, 0xf8, 0xe1, 0x0a, 0xee, 0xd7, 0x18, 0xff, 0x1c, 0x0a, 0xf7,
  0xfd, 0xdc, 0xef, 0xfe, 0x14, 0x1d, 0xfd, 0xec, 0x05, 0xf5, 0xdd, 0x10,
  0xf9, 0x24, 0x00, 0x09, 0xf0, 0xf2, 0xde, 0x0e, 0x17, 0xf2, 0xf1, 0xd9,
  0xea, 0xfa, 0xe9, 0x10, 0x0a, 0x1f, 0xfc, 0x0c, 0xf5, 0xf8, 0xe1, 0x0b,
  0x1b, 0xf5, 0x17, 0xd7, 0x06, 0xf6, 0xdd, 0x12, 0x06, 0x1f, 0xf6, 0x07,
  0xef, 0xe4, 0xdc, 0x19, 0x11, 0xee, 0xf3, 0xf1, 0x0c, 0xf6, 0xe7, 0x0f,
  0x08, 0x1c, 0x05, 0x0a, 0xf0, 0xee, 0xe4, 0x0e, 0x13, 0xe4, 0x06, 0xf4,
  0x09, 0xf3, 0xdb, 0x0d, 0x08, 0x26, 0xf9, 0x0f, 0xef, 0xee, 0xec, 0x07,
  0x26, 0xf5, 0x09, 0xef, 0x0b, 0xf2, 0xe9, 0x12, 0x08, 0x1d, 0xfa, 0x0a,
  0xf2, 0xf6, 0xe0, 0x12, 0x13, 0xf1, 0x06, 0xef, 0x06, 0xec, 0xef, 0x0c,
  0x06, 0x21, 0x00, 0x13, 0xfc, 0xed, 0xe9, 0x09, 0x19, 0xe2, 0x06, 0xef,
  0x0c, 0xf4, 0xe3, 0x0a, 0x06, 0x26, 0xee, 0x09, 0xed, 0xed, 0xf2, 0x10,
  0x26, 0xfb, 0x04, 0xf8, 0x0a, 0xe8, 0xdb, 0x11, 0x09, 0x1e, 0x04, 0x0e,
  0xf4, 0xe4, 0xe8, 0x00, 0x05, 0xed, 0x02, 0xe1, 0x0a, 0xed, 0xdf, 0x01,
  0x07, 0x1e, 0x00, 0xfb, 0xf0, 0xe3, 0xe9, 0xf4, 0x04, 0xf5, 0x04, 0xf5,
  0x04, 0xfc, 0xe7, 0x08, 0x08, 0x0c, 0xe2, 0x0a, 0xee, 0xfd, 0xf6, 0xf3,
  0x01, 0xf4, 0x05, 0x0e, 0xfe, 0xf5, 0xdf, 0xdd, 0xe9, 0x0b, 0x05, 0x17,
  0xe4, 0xe6, 0xeb, 0xe5, 0xf6, 0xe1, 0x07, 0x01, 0xba, 0xfe, 0xff, 0xff,
  0x04, 0x00, 0x00, 0x00, 0x14, 0x00, 0x00, 0x00, 0xa9, 0xfa, 0xff, 0xff,
  0xf0, 0xfa, 0xff, 0xff, 0xc6, 0xf9, 0xff, 0xff, 0x49, 0x12, 0x00, 0x00,
  0x06, 0xfd, 0xff, 0xff, 0xda, 0xfe, 0xff, 0xff, 0x04, 0x00, 0x00, 0x00,
  0x08, 0x00, 0x00, 0x00, 0xff, 0xff, 0xff, 0xff, 0xd0, 0x00, 0x00, 0x00,
  0xee, 0xfe, 0xff, 0xff, 0x04, 0x00, 0x00, 0x00, 0x10, 0x00, 0x00, 0x00,
  0x01, 0x00, 0x00, 0x00, 0x19, 0x00, 0x00, 0x00, 0x01, 0x00, 0x00, 0x00,
  0x10, 0x00, 0x00, 0x00, 0x0a, 0xff, 0xff, 0xff, 0x04, 0x00, 0x00, 0x00,
  0x10, 0x00, 0x00, 0x00, 0x01, 0x00, 0x00, 0x00, 0x01, 0x00, 0x00, 0x00,
  0x19, 0x00, 0x00, 0x00, 0x08, 0x00, 0x00, 0x00, 0x26, 0xff, 0xff, 0xff,
  0x04, 0x00, 0x00, 0x00, 0x10, 0x00, 0x00, 0x00, 0x01, 0x00, 0x00, 0x00,
  0x32, 0x00, 0x00, 0x00, 0x01, 0x00, 0x00, 0x00, 0x08, 0x00, 0x00, 0x00,
  0x42, 0xff, 0xff, 0xff, 0x04, 0x00, 0x00, 0x00, 0x10, 0x00, 0x00, 0x00,
  0x01, 0x00, 0x00, 0x00, 0x01, 0x00, 0x00, 0x00, 0x32, 0x00, 0x00, 0x00,
  0x0d, 0x00, 0x00, 0x00, 0x90, 0xf0, 0xff, 0xff, 0x94, 0xf0, 0xff, 0xff,
  0x0f, 0x00, 0x00, 0x00, 0x4d, 0x4c, 0x49, 0x52, 0x20, 0x43, 0x6f, 0x6e,
  0x76, 0x65, 0x72, 0x74, 0x65, 0x64, 0x2e, 0x00, 0x01, 0x00, 0x00, 0x00,
  0x14, 0x00, 0x00, 0x00, 0x00, 0x00, 0x0e, 0x00, 0x18, 0x00, 0x14, 0x00,
  0x10, 0x00, 0x0c, 0x00, 0x08, 0x00, 0x04, 0x00, 0x0e, 0x00, 0x00, 0x00,
  0x14, 0x00, 0x00, 0x00, 0x1c, 0x00, 0x00, 0x00, 0x84, 0x02, 0x00, 0x00,
  0x88, 0x02, 0x00, 0x00, 0x8c, 0x02, 0x00, 0x00, 0x04, 0x00, 0x00, 0x00,
  0x6d, 0x61, 0x69, 0x6e, 0x00, 0x00, 0x00, 0x00, 0x0b, 0x00, 0x00, 0x00,
  0x48, 0x02, 0x00, 0x00, 0xec, 0x01, 0x00, 0x00, 0xb8, 0x01, 0x00, 0x00,
  0x68, 0x01, 0x00, 0x00, 0x44, 0x01, 0x00, 0x00, 0x00, 0x01, 0x00, 0x00,
  0xdc, 0x00, 0x00, 0x00, 0x9c, 0x00, 0x00, 0x00, 0x78, 0x00, 0x00, 0x00,
  0x40, 0x00, 0x00, 0x00, 0x04, 0x00, 0x00, 0x00, 0x4a, 0xfe, 0xff, 0xff,
  0x1c, 0x00, 0x00, 0x00, 0x00, 0x00, 0x00, 0x09, 0x1c, 0x00, 0x00, 0x00,
  0x20, 0x00, 0x00, 0x00, 0x04, 0x00, 0x00, 0x00, 0x00, 0x00, 0x06, 0x00,
  0x08, 0x00, 0x04, 0x00, 0x06, 0x00, 0x00, 0x00, 0x00, 0x00, 0x80, 0x3f,
  0x01, 0x00, 0x00, 0x00, 0x16, 0x00, 0x00, 0x00, 0x01, 0x00, 0x00, 0x00,
  0x15, 0x00, 0x00, 0x00, 0x82, 0xfe, 0xff, 0xff, 0x14, 0x00, 0x00, 0x00,
  0x00, 0x00, 0x00, 0x08, 0x10, 0x00, 0x00, 0x00, 0x14, 0x00, 0x00, 0x00,
  0x03, 0x00, 0x00, 0x00, 0x68, 0xf1, 0xff, 0xff, 0x01, 0x00, 0x00, 0x00,
  0x15, 0x00, 0x00, 0x00, 0x03, 0x00, 0x00, 0x00, 0x14, 0x00, 0x00, 0x00,
  0x07, 0x00, 0x00, 0x00, 0x06, 0x00, 0x00, 0x00, 0x5a, 0xfe, 0xff, 0xff,
  0x08, 0x00, 0x00, 0x00, 0x0c, 0x00, 0x00, 0x00, 0x01, 0x00, 0x00, 0x00,
  0x14, 0x00, 0x00, 0x00, 0x02, 0x00, 0x00, 0x00, 0x13, 0x00, 0x00, 0x00,
  0x05, 0x00, 0x00, 0x00, 0xd6, 0xfe, 0xff, 0xff, 0x14, 0x00, 0x00, 0x00,
  0x00, 0x00, 0x00, 0x05, 0x20, 0x00, 0x00, 0x00, 0x24, 0x00, 0x00, 0x00,
  0x02, 0x00, 0x00, 0x00, 0x42, 0xff, 0xff, 0xff, 0x02, 0x00, 0x00, 0x00,
  0x01, 0x00, 0x00, 0x00, 0x02, 0x00, 0x00, 0x00, 0x01, 0x00, 0x00, 0x00,
  0x01, 0x00, 0x00, 0x00, 0x13, 0x00, 0x00, 0x00, 0x01, 0x00, 0x00, 0x00,
  0x12, 0x00, 0x00, 0x00, 0xb6, 0xfe, 0xff, 0xff, 0x08, 0x00, 0x00, 0x00,
  0x0c, 0x00, 0x00, 0x00, 0x01, 0x00, 0x00, 0x00, 0x12, 0x00, 0x00, 0x00,
  0x02, 0x00, 0x00, 0x00, 0x11, 0x00, 0x00, 0x00, 0x04, 0x00, 0x00, 0x00,
  0x32, 0xff, 0xff, 0xff, 0x14, 0x00, 0x00, 0x00, 0x00, 0x00, 0x00, 0x01,
  0x1c, 0x00, 0x00, 0x00, 0x20, 0x00, 0x00, 0x00, 0x01, 0x00, 0x00, 0x00,
  0x24, 0xff, 0xff, 0xff, 0x00, 0x00, 0x00, 0x01, 0x01, 0x00, 0x00, 0x00,
  0x01, 0x00, 0x00, 0x00, 0x01, 0x00, 0x00, 0x00, 0x11, 0x00, 0x00, 0x00,
  0x03, 0x00, 0x00, 0x00, 0x10, 0x00, 0x00, 0x00, 0x09, 0x00, 0x00, 0x00,
  0x08, 0x00, 0x00, 0x00, 0x16, 0xff, 0xff, 0xff, 0x08, 0x00, 0x00, 0x00,
  0x0c, 0x00, 0x00, 0x00, 0x01, 0x00, 0x00, 0x00, 0x10, 0x00, 0x00, 0x00,
  0x02, 0x00, 0x00, 0x00, 0x0f, 0x00, 0x00, 0x00, 0x03, 0x00, 0x00, 0x00,
  0x92, 0xff, 0xff, 0xff, 0x24, 0x00, 0x00, 0x00, 0x00, 0x00, 0x00, 0x05,
  0x30, 0x00, 0x00, 0x00, 0x34, 0x00, 0x00, 0x00, 0x02, 0x00, 0x00, 0x00,
  0x00, 0x00, 0x0e, 0x00, 0x14, 0x00, 0x00, 0x00, 0x10, 0x00, 0x0c, 0x00,
  0x08, 0x00, 0x04, 0x00, 0x0e, 0x00, 0x00, 0x00, 0x02, 0x00, 0x00, 0x00,
  0x01, 0x00, 0x00, 0x00, 0x02, 0x00, 0x00, 0x00, 0x01, 0x00, 0x00, 0x00,
  0x01, 0x00, 0x00, 0x00, 0x0f, 0x00, 0x00, 0x00, 0x01, 0x00, 0x00, 0x00,
  0x0e, 0x00, 0x00, 0x00, 0x82, 0xff, 0xff, 0xff, 0x08, 0x00, 0x00, 0x00,
  0x0c, 0x00, 0x00, 0x00, 0x01, 0x00, 0x00, 0x00, 0x0e, 0x00, 0x00, 0x00,
  0x02, 0x00, 0x00, 0x00, 0x0d, 0x00, 0x00, 0x00, 0x02, 0x00, 0x00, 0x00,
  0x00, 0x00, 0x0e, 0x00, 0x18, 0x00, 0x14, 0x00, 0x10, 0x00, 0x0c, 0x00,
  0x0b, 0x00, 0x04, 0x00, 0x0e, 0x00, 0x00, 0x00, 0x20, 0x00, 0x00, 0x00,
  0x00, 0x00, 0x00, 0x01, 0x28, 0x00, 0x00, 0x00, 0x2c, 0x00, 0x00, 0x00,
  0x01, 0x00, 0x00, 0x00, 0x0c, 0x00, 0x10, 0x00, 0x00, 0x00, 0x0c, 0x00,
  0x08, 0x00, 0x07, 0x00, 0x0c, 0x00, 0x00, 0x00, 0x00, 0x00, 0x00, 0x01,
  0x01, 0x00, 0x00, 0x00, 0x01, 0x00, 0x00, 0x00, 0x01, 0x00, 0x00, 0x00,
  0x0d, 0x00, 0x00, 0x00, 0x03, 0x00, 0x00, 0x00, 0x0c, 0x00, 0x00, 0x00,
  0x0b, 0x00, 0x00, 0x00, 0x0a, 0x00, 0x00, 0x00, 0x00, 0x00, 0x0a, 0x00,
  0x0c, 0x00, 0x00, 0x00, 0x08, 0x00, 0x04, 0x00, 0x0a, 0x00, 0x00, 0x00,
  0x08, 0x00, 0x00, 0x00, 0x0c, 0x00, 0x00, 0x00, 0x01, 0x00, 0x00, 0x00,
  0x0c, 0x00, 0x00, 0x00, 0x02, 0x00, 0x00, 0x00, 0x00, 0x00, 0x00, 0x00,
  0x01, 0x00, 0x00, 0x00, 0x01, 0x00, 0x00, 0x00, 0x16, 0x00, 0x00, 0x00,
  0x01, 0x00, 0x00, 0x00, 0x00, 0x00, 0x00, 0x00, 0x17, 0x00, 0x00, 0x00,
  0xe8, 0x0c, 0x00, 0x00, 0x78, 0x0c, 0x00, 0x00, 0x24, 0x0c, 0x00, 0x00,
  0xcc, 0x0b, 0x00, 0x00, 0x74, 0x0b, 0x00, 0x00, 0x28, 0x0b, 0x00, 0x00,
  0xac, 0x0a, 0x00, 0x00, 0x40, 0x0a, 0x00, 0x00, 0x14, 0x09, 0x00, 0x00,
  0xe8, 0x07, 0x00, 0x00, 0x1c, 0x07, 0x00, 0x00, 0x50, 0x06, 0x00, 0x00,
  0xcc, 0x05, 0x00, 0x00, 0xe0, 0x04, 0x00, 0x00, 0x5c, 0x04, 0x00, 0x00,
  0xe0, 0x03, 0x00, 0x00, 0x5c, 0x03, 0x00, 0x00, 0x60, 0x02, 0x00, 0x00,
  0xdc, 0x01, 0x00, 0x00, 0x60, 0x01, 0x00, 0x00, 0xf4, 0x00, 0x00, 0x00,
  0x70, 0x00, 0x00, 0x00, 0x04, 0x00, 0x00, 0x00, 0x8a, 0xf3, 0xff, 0xff,
  0x00, 0x00, 0x00, 0x01, 0x14, 0x00, 0x00, 0x00, 0x30, 0x00, 0x00, 0x00,
  0x17, 0x00, 0x00, 0x00, 0x00, 0x00, 0x00, 0x09, 0x44, 0x00, 0x00, 0x00,
  0x74, 0xf3, 0xff, 0xff, 0x08, 0x00, 0x00, 0x00, 0x10, 0x00, 0x00, 0x00,
  0x01, 0x00, 0x00, 0x00, 0x80, 0xff, 0xff, 0xff, 0xff, 0xff, 0xff, 0xff,
  0x01, 0x00, 0x00, 0x00, 0x00, 0x00, 0x80, 0x3b, 0x19, 0x00, 0x00, 0x00,
  0x53, 0x74, 0x61, 0x74, 0x65, 0x66, 0x75, 0x6c, 0x50, 0x61, 0x72, 0x74,
  0x69, 0x74, 0x69, 0x6f, 0x6e, 0x65, 0x64, 0x43, 0x61, 0x6c, 0x6c, 0x3a,
  0x30, 0x00, 0x00, 0x00, 0x02, 0x00, 0x00, 0x00, 0x01, 0x00, 0x00, 0x00,
  0x05, 0x00, 0x00, 0x00, 0xf2, 0xf3, 0xff, 0xff, 0x00, 0x00, 0x00, 0x01,
  0x14, 0x00, 0x00, 0x00, 0x30, 0x00, 0x00, 0x00, 0x16, 0x00, 0x00, 0x00,
  0x00, 0x00, 0x00, 0x09, 0x5c, 0x00, 0x00, 0x00, 0xdc, 0xf3, 0xff, 0xff,
  0x08, 0x00, 0x00, 0x00, 0x10, 0x00, 0x00, 0x00, 0x01, 0x00, 0x00, 0x00,
  0x3b, 0x00, 0x00, 0x00, 0x00, 0x00, 0x00, 0x00, 0x01, 0x00, 0x00, 0x00,
  0x1c, 0xc1, 0x4c, 0x3e, 0x32, 0x00, 0x00, 0x00, 0x73, 0x65, 0x71, 0x75,
  0x65, 0x6e, 0x74, 0x69, 0x61, 0x6c, 0x2f, 0x79, 0x5f, 0x70, 0x72, 0x65,
  0x64, 0x2f, 0x4d, 0x61, 0x74, 0x4d, 0x75, 0x6c, 0x3b, 0x73, 0x65, 0x71,
  0x75, 0x65, 0x6e, 0x74, 0x69, 0x61, 0x6c, 0x2f, 0x79, 0x5f, 0x70, 0x72,
  0x65, 0x64, 0x2f, 0x42, 0x69, 0x61, 0x73, 0x41, 0x64, 0x64, 0x00, 0x00,
  0x02, 0x00, 0x00, 0x00, 0x01, 0x00, 0x00, 0x00, 0x05, 0x00, 0x00, 0x00,
  0x72, 0xf4, 0xff, 0xff, 0x00, 0x00, 0x00, 0x01, 0x14, 0x00, 0x00, 0x00,
  0x30, 0x00, 0x00, 0x00, 0x15, 0x00, 0x00, 0x00, 0x00, 0x00, 0x00, 0x09,
  0x44, 0x00, 0x00, 0x00, 0x5c, 0xf4, 0xff, 0xff, 0x08, 0x00, 0x00, 0x00,
  0x10, 0x00, 0x00, 0x00, 0x01, 0x00, 0x00, 0x00, 0x80, 0xff, 0xff, 0xff,
  0xff, 0xff, 0xff, 0xff, 0x01, 0x00, 0x00, 0x00, 0xa7, 0x18, 0x1c, 0x3d,
  0x1a, 0x00, 0x00, 0x00, 0x73, 0x65, 0x71, 0x75, 0x65, 0x6e, 0x74, 0x69,
  0x61, 0x6c, 0x2f, 0x66, 0x6c, 0x61, 0x74, 0x74, 0x65, 0x6e, 0x2f, 0x52,
  0x65, 0x73, 0x68, 0x61, 0x70, 0x65, 0x00, 0x00, 0x02, 0x00, 0x00, 0x00,
  0x01, 0x00, 0x00, 0x00, 0xd0, 0x00, 0x00, 0x00, 0xda, 0xf4, 0xff, 0xff,
  0x00, 0x00, 0x00, 0x01, 0x14, 0x00, 0x00, 0x00, 0x30, 0x00, 0x00, 0x00,
  0x14, 0x00, 0x00, 0x00, 0x00, 0x00, 0x00, 0x09, 0x4c, 0x00, 0x00, 0x00,
  0xc4, 0xf4, 0xff, 0xff, 0x08, 0x00, 0x00, 0x00, 0x10, 0x00, 0x00, 0x00,
  0x01, 0x00, 0x00, 0x00, 0x80, 0xff, 0xff, 0xff, 0xff, 0xff, 0xff, 0xff,
  0x01, 0x00, 0x00, 0x00, 0xa7, 0x18, 0x1c, 0x3d, 0x22, 0x00, 0x00, 0x00,
  0x73, 0x65, 0x71, 0x75, 0x65, 0x6e, 0x74, 0x69, 0x61, 0x6c, 0x2f, 0x6d,
  0x61, 0x78, 0x5f, 0x70, 0x6f, 0x6f, 0x6c, 0x69, 0x6e, 0x67, 0x31, 0x64,
  0x5f, 0x31, 0x2f, 0x4d, 0x61, 0x78, 0x50, 0x6f, 0x6f, 0x6c, 0x00, 0x00,
  0x04, 0x00, 0x00, 0x00, 0x01, 0x00, 0x00, 0x00, 0x0d, 0x00, 0x00, 0x00,
  0x01, 0x00, 0x00, 0x00, 0x10, 0x00, 0x00, 0x00, 0x52, 0xf5, 0xff, 0xff,
  0x00, 0x00, 0x00, 0x01, 0x14, 0x00, 0x00, 0x00, 0x34, 0x00, 0x00, 0x00,
  0x13, 0x00, 0x00, 0x00, 0x00, 0x00, 0x00, 0x09, 0x54, 0x00, 0x00, 0x00,
  0x3c, 0xf5, 0xff, 0xff, 0x08, 0x00, 0x00, 0x00, 0x14, 0x00, 0x00, 0x00,
  0x01, 0x00, 0x00, 0x00, 0x80, 0xff, 0xff, 0xff, 0xff, 0xff, 0xff, 0xff,
  0x00, 0x00, 0x00, 0x00, 0x01, 0x00, 0x00, 0x00, 0xa7, 0x18, 0x1c, 0x3d,
  0x26, 0x00, 0x00, 0x00, 0x73, 0x65, 0x71, 0x75, 0x65, 0x6e, 0x74, 0x69,
  0x61, 0x6c, 0x2f, 0x6d, 0x61, 0x78, 0x5f, 0x70, 0x6f, 0x6f, 0x6c, 0x69,
  0x6e, 0x67, 0x31, 0x64, 0x5f, 0x31, 0x2f, 0x45, 0x78, 0x70, 0x61, 0x6e,
  0x64, 0x44, 0x69, 0x6d, 0x73, 0x31, 0x00, 0x00, 0x04, 0x00, 0x00, 0x00,
  0x01, 0x00, 0x00, 0x00, 0x19, 0x00, 0x00, 0x00, 0x01, 0x00, 0x00, 0x00,
  0x10, 0x00, 0x00, 0x00, 0xd2, 0xf5, 0xff, 0xff, 0x00, 0x00, 0x00, 0x01,
  0x14, 0x00, 0x00, 0x00, 0x34, 0x00, 0x00, 0x00, 0x12, 0x00, 0x00, 0x00,
  0x00, 0x00, 0x00, 0x09, 0xcc, 0x00, 0x00, 0x00, 0xbc, 0xf5, 0xff, 0xff,
  0x08, 0x00, 0x00, 0x00, 0x14, 0x00, 0x00, 0x00, 0x01, 0x00, 0x00, 0x00,
  0x80, 0xff, 0xff, 0xff, 0xff, 0xff, 0xff, 0xff, 0x00, 0x00, 0x00, 0x00,
  0x01, 0x00, 0x00, 0x00, 0xa7, 0x18, 0x1c, 0x3d, 0x9d, 0x00, 0x00, 0x00,
  0x73, 0x65, 0x71, 0x75, 0x65, 0x6e, 0x74, 0x69, 0x61, 0x6c, 0x2f, 0x63,
  0x6f, 0x6e, 0x76, 0x31, 0x64, 0x5f, 0x31, 0x2f, 0x52, 0x65, 0x6c, 0x75,
  0x3b, 0x73, 0x65, 0x71, 0x75, 0x65, 0x6e, 0x74, 0x69, 0x61, 0x6c, 0x2f,
  0x63, 0x6f, 0x6e, 0x76, 0x31, 0x64, 0x5f, 0x31, 0x2f, 0x42, 0x69, 0x61,
  0x73, 0x41, 0x64, 0x64, 0x3b, 0x73, 0x65, 0x71, 0x75, 0x65, 0x6e, 0x74,
  0x69, 0x61, 0x6c, 0x2f, 0x63, 0x6f, 0x6e, 0x76, 0x31, 0x64, 0x5f, 0x31,
  0x2f, 0x43, 0x6f, 0x6e, 0x76, 0x31, 0x44, 0x2f, 0x53, 0x71, 0x75, 0x65,
  0x65, 0x7a, 0x65, 0x3b, 0x73, 0x65, 0x71, 0x75, 0x65, 0x6e, 0x74, 0x69,
  0x61, 0x6c, 0x2f, 0x63, 0x6f, 0x6e, 0x76, 0x31, 0x64, 0x5f, 0x31, 0x2f,
  0x42, 0x69, 0x61, 0x73, 0x41, 0x64, 0x64, 0x2f, 0x52, 0x65, 0x61, 0x64,
  0x56, 0x61, 0x72, 0x69, 0x61, 0x62, 0x6c, 0x65, 0x4f, 0x70, 0x3b, 0x73,
  0x65, 0x71, 0x75, 0x65, 0x6e, 0x74, 0x69, 0x61, 0x6c, 0x2f, 0x63, 0x6f,
  0x6e, 0x76, 0x31, 0x64, 0x5f, 0x31, 0x2f, 0x43, 0x6f, 0x6e, 0x76, 0x31,
  0x44, 0x00, 0x00, 0x00, 0x04, 0x00, 0x00, 0x00, 0x01, 0x00, 0x00, 0x00,
  0x01, 0x00, 0x00, 0x00, 0x19, 0x00, 0x00, 0x00, 0x10, 0x00, 0x00, 0x00,
  0xca, 0xf6, 0xff, 0xff, 0x00, 0x00, 0x00, 0x01, 0x14, 0x00, 0x00, 0x00,
  0x34, 0x00, 0x00, 0x00, 0x11, 0x00, 0x00, 0x00, 0x00, 0x00, 0x00, 0x09,
  0x54, 0x00, 0x00, 0x00, 0xb4, 0xf6, 0xff, 0xff, 0x08, 0x00, 0x00, 0x00,
  0x14, 0x00, 0x00, 0x00, 0x01, 0x00, 0x00, 0x00, 0x80, 0xff, 0xff, 0xff,
  0xff, 0xff, 0xff, 0xff, 0x00, 0x00, 0x00, 0x00, 0x01, 0x00, 0x00, 0x00,
  0xce, 0x46, 0xa1, 0x3d, 0x26, 0x00, 0x00, 0x00, 0x73, 0x65, 0x71, 0x75,
  0x65, 0x6e, 0x74, 0x69, 0x61, 0x6c, 0x2f, 0x63, 0x6f, 0x6e, 0x76, 0x31,
  0x64, 0x5f, 0x31, 0x2f, 0x43, 0x6f, 0x6e, 0x76, 0x31, 0x44, 0x2f, 0x45,
  0x78, 0x70, 0x61, 0x6e, 0x64, 0x44, 0x69, 0x6d, 0x73, 0x31, 0x00, 0x00,
  0x04, 0x00, 0x00, 0x00, 0x01, 0x00, 0x00, 0x00, 0x01, 0x00, 0x00, 0x00,
  0x19, 0x00, 0x00, 0x00, 0x08, 0x00, 0x00, 0x00, 0x4a, 0xf7, 0xff, 0xff,
  0x00, 0x00, 0x00, 0x01, 0x14, 0x00, 0x00, 0x00, 0x30, 0x00, 0x00, 0x00,
  0x10, 0x00, 0x00, 0x00, 0x00, 0x00, 0x00, 0x09, 0x4c, 0x00, 0x00, 0x00,
  0x34, 0xf7, 0xff, 0xff, 0x08, 0x00, 0x00, 0x00, 0x10, 0x00, 0x00, 0x00,
  0x01, 0x00, 0x00, 0x00, 0x80, 0xff, 0xff, 0xff, 0xff, 0xff, 0xff, 0xff,
  0x01, 0x00, 0x00, 0x00, 0xce, 0x46, 0xa1, 0x3d, 0x20, 0x00, 0x00, 0x00,
  0x73, 0x65, 0x71, 0x75, 0x65, 0x6e, 0x74, 0x69, 0x61, 0x6c, 0x2f, 0x6d,
  0x61, 0x78, 0x5f, 0x70, 0x6f, 0x6f, 0x6c, 0x69, 0x6e, 0x67, 0x31, 0x64,
  0x2f, 0x4d, 0x61, 0x78, 0x50, 0x6f, 0x6f, 0x6c, 0x00, 0x00, 0x00, 0x00,
  0x04, 0x00, 0x00, 0x00, 0x01, 0x00, 0x00, 0x00, 0x19, 0x00, 0x00, 0x00,
  0x01, 0x00, 0x00, 0x00, 0x08, 0x00, 0x00, 0x00, 0xc2, 0xf7, 0xff, 0xff,
  0x00, 0x00, 0x00, 0x01, 0x14, 0x00, 0x00, 0x00, 0x34, 0x00, 0x00, 0x00,
  0x0f, 0x00, 0x00, 0x00, 0x00, 0x00, 0x00, 0x09, 0x54, 0x00, 0x00, 0x00,
  0xac, 0xf7, 0xff, 0xff, 0x08, 0x00, 0x00, 0x00, 0x14, 0x00, 0x00, 0x00,
  0x01, 0x00, 0x00, 0x00, 0x80, 0xff, 0xff, 0xff, 0xff, 0xff, 0xff, 0xff,
  0x00, 0x00, 0x00, 0x00, 0x01, 0x00, 0x00, 0x00, 0xce, 0x46, 0xa1, 0x3d,
  0x24, 0x00, 0x00, 0x00, 0x73, 0x65, 0x71, 0x75, 0x65, 0x6e, 0x74, 0x69,
  0x61, 0x6c, 0x2f, 0x6d, 0x61, 0x78, 0x5f, 0x70, 0x6f, 0x6f, 0x6c, 0x69,
  0x6e, 0x67, 0x31, 0x64, 0x2f, 0x45, 0x78, 0x70, 0x61, 0x6e, 0x64, 0x44,
  0x69, 0x6d, 0x73, 0x31, 0x00, 0x00, 0x00, 0x00, 0x04, 0x00, 0x00, 0x00,
  0x01, 0x00, 0x00, 0x00, 0x32, 0x00, 0x00, 0x00, 0x01, 0x00, 0x00, 0x00,
  0x08, 0x00, 0x00, 0x00, 0x42, 0xf8, 0xff, 0xff, 0x00, 0x00, 0x00, 0x01,
  0x14, 0x00, 0x00, 0x00, 0x30, 0x00, 0x00, 0x00, 0x0e, 0x00, 0x00, 0x00,
  0x00, 0x00, 0x00, 0x09, 0xbc, 0x00, 0x00, 0x00, 0x2c, 0xf8, 0xff, 0xff,
  0x08, 0x00, 0x00, 0x00, 0x10, 0x00, 0x00, 0x00, 0x01, 0x00, 0x00, 0x00,
  0x80, 0xff, 0xff, 0xff, 0xff, 0xff, 0xff, 0xff, 0x01, 0x00, 0x00, 0x00,
  0xce, 0x46, 0xa1, 0x3d, 0x93, 0x00, 0x00, 0x00, 0x73, 0x65, 0x71, 0x75,
  0x65, 0x6e, 0x74, 0x69, 0x61, 0x6c, 0x2f, 0x63, 0x6f, 0x6e, 0x76, 0x31,
  0x64, 0x2f, 0x52, 0x65, 0x6c, 0x75, 0x3b, 0x73, 0x65, 0x71, 0x75, 0x65,
  0x6e, 0x74, 0x69, 0x61, 0x6c, 0x2f, 0x63, 0x6f, 0x6e, 0x76, 0x31, 0x64,
  0x2f, 0x42, 0x69, 0x61, 0x73, 0x41, 0x64, 0x64, 0x3b, 0x73, 0x65, 0x71,
  0x75, 0x65, 0x6e, 0x74, 0x69, 0x61, 0x6c, 0x2f, 0x63, 0x6f, 0x6e, 0x76,
  0x31, 0x64, 0x2f, 0x43, 0x6f, 0x6e, 0x76, 0x31, 0x44, 0x2f, 0x53, 0x71,
  0x75, 0x65, 0x65, 0x7a, 0x65, 0x3b, 0x73, 0x65, 0x71, 0x75, 0x65, 0x6e,
  0x74, 0x69, 0x61, 0x6c, 0x2f, 0x63, 0x6f, 0x6e, 0x76, 0x31, 0x64, 0x2f,
  0x42, 0x69, 0x61, 0x73, 0x41, 0x64, 0x64, 0x2f, 0x52, 0x65, 0x61, 0x64,
  0x56, 0x61, 0x72, 0x69, 0x61, 0x62, 0x6c, 0x65, 0x4f, 0x70, 0x3b, 0x73,
  0x65, 0x71, 0x75, 0x65, 0x6e, 0x74, 0x69, 0x61, 0x6c, 0x2f, 0x63, 0x6f,
  0x6e, 0x76, 0x31, 0x64, 0x2f, 0x43, 0x6f, 0x6e, 0x76, 0x31, 0x44, 0x00,
  0x04, 0x00, 0x00, 0x00, 0x01, 0x00, 0x00, 0x00, 0x01, 0x00, 0x00, 0x00,
  0x32, 0x00, 0x00, 0x00, 0x08, 0x00, 0x00, 0x00, 0x2a, 0xf9, 0xff, 0xff,
  0x00, 0x00, 0x00, 0x01, 0x14, 0x00, 0x00, 0x00, 0x34, 0x00, 0x00, 0x00,
  0x0d, 0x00, 0x00, 0x00, 0x00, 0x00, 0x00, 0x09, 0x54, 0x00, 0x00, 0x00,
  0x14, 0xf9, 0xff, 0xff, 0x08, 0x00, 0x00, 0x00, 0x14, 0x00, 0x00, 0x00,
  0x01, 0x00, 0x00, 0x00, 0x05, 0x00, 0x00, 0x00, 0x00, 0x00, 0x00, 0x00,
  0x00, 0x00, 0x00, 0x00, 0x01, 0x00, 0x00, 0x00, 0x9d, 0xd2, 0x57, 0x3d,
  0x24, 0x00, 0x00, 0x00, 0x73, 0x65, 0x71, 0x75, 0x65, 0x6e, 0x74, 0x69,
  0x61, 0x6c, 0x2f, 0x63, 0x6f, 0x6e, 0x76, 0x31, 0x64, 0x2f, 0x43, 0x6f,
  0x6e, 0x76, 0x31, 0x44, 0x2f, 0x45, 0x78, 0x70, 0x61, 0x6e, 0x64, 0x44,
  0x69, 0x6d, 0x73, 0x31, 0x00, 0x00, 0x00, 0x00, 0x04, 0x00, 0x00, 0x00,
  0x01, 0x00, 0x00, 0x00, 0x01, 0x00, 0x00, 0x00, 0x32, 0x00, 0x00, 0x00,
  0x0d, 0x00, 0x00, 0x00, 0xaa, 0xf9, 0xff, 0xff, 0x00, 0x00, 0x00, 0x01,
  0x14, 0x00, 0x00, 0x00, 0x88, 0x00, 0x00, 0x00, 0x0c, 0x00, 0x00, 0x00,
  0x00, 0x00, 0x00, 0x09, 0x9c, 0x00, 0x00, 0x00, 0x94, 0xf9, 0xff, 0xff,
  0x08, 0x00, 0x00, 0x00, 0x4c, 0x00, 0x00, 0x00, 0x08, 0x00, 0x00, 0x00,
  0x00, 0x00, 0x00, 0x00, 0x00, 0x00, 0x00, 0x00, 0x00, 0x00, 0x00, 0x00,
  0x00, 0x00, 0x00, 0x00, 0x00, 0x00, 0x00, 0x00, 0x00, 0x00, 0x00, 0x00,
  0x00, 0x00, 0x00, 0x00, 0x00, 0x00, 0x00, 0x00, 0x00, 0x00, 0x00, 0x00,
  0x00, 0x00, 0x00, 0x00, 0x00, 0x00, 0x00, 0x00, 0x00, 0x00, 0x00, 0x00,
  0x00, 0x00, 0x00, 0x00, 0x00, 0x00, 0x00, 0x00, 0x00, 0x00, 0x00, 0x00,
  0x00, 0x00, 0x00, 0x00, 0x00, 0x00, 0x00, 0x00, 0x08, 0x00, 0x00, 0x00,
  0x65, 0x83, 0xb5, 0x3b, 0x07, 0xa6, 0x82, 0x3c, 0x3a, 0x54, 0xb6, 0x3c,
  0xa9, 0x09, 0xb5, 0x3c, 0x7a, 0x36, 0x07, 0x3c, 0x1e, 0x94, 0x9c, 0x3b,
  0x79, 0xfa, 0x9b, 0x3b, 0x42, 0x49, 0xa3, 0x3b, 0x18, 0x00, 0x00, 0x00,
  0x73, 0x65, 0x71, 0x75, 0x65, 0x6e, 0x74, 0x69, 0x61, 0x6c, 0x2f, 0x63,
  0x6f, 0x6e, 0x76, 0x31, 0x64, 0x2f, 0x43, 0x6f, 0x6e, 0x76, 0x31, 0x44,
  0x00, 0x00, 0x00, 0x00, 0x04, 0x00, 0x00, 0x00, 0x08, 0x00, 0x00, 0x00,
  0x01, 0x00, 0x00, 0x00, 0x03, 0x00, 0x00, 0x00, 0x0d, 0x00, 0x00, 0x00,
  0x72, 0xfa, 0xff, 0xff, 0x00, 0x00, 0x00, 0x01, 0x14, 0x00, 0x00, 0x00,
  0x84, 0x00, 0x00, 0x00, 0x0b, 0x00, 0x00, 0x00, 0x00, 0x00, 0x00, 0x02,
  0xa8, 0x00, 0x00, 0x00, 0x5c, 0xfa, 0xff, 0xff, 0x08, 0x00, 0x00, 0x00,
  0x48, 0x00, 0x00, 0x00, 0x08, 0x00, 0x00, 0x00, 0x00, 0x00, 0x00, 0x00,
  0x00, 0x00, 0x00, 0x00, 0x00, 0x00, 0x00, 0x00, 0x00, 0x00, 0x00, 0x00,
  0x00, 0x00, 0x00, 0x00, 0x00, 0x00, 0x00, 0x00, 0x00, 0x00, 0x00, 0x00,
  0x00, 0x00, 0x00, 0x00, 0x00, 0x00, 0x00, 0x00, 0x00, 0x00, 0x00, 0x00,
  0x00, 0x00, 0x00, 0x00, 0x00, 0x00, 0x00, 0x00, 0x00, 0x00, 0x00, 0x00,
  0x00, 0x00, 0x00, 0x00, 0x00, 0x00, 0x00, 0x00, 0x00, 0x00, 0x00, 0x00,
  0x08, 0x00, 0x00, 0x00, 0xaf, 0x06, 0x99, 0x39, 0xd8, 0x49, 0x5c, 0x3a,
  0xbe, 0xb6, 0x99, 0x3a, 0x0e, 0xa0, 0x98, 0x3a, 0xfc, 0xfb, 0xe3, 0x39,
  0x37, 0x01, 0x84, 0x39, 0xaf, 0x7f, 0x83, 0x39, 0xdd, 0xa8, 0x89, 0x39,
  0x28, 0x00, 0x00, 0x00, 0x73, 0x65, 0x71, 0x75, 0x65, 0x6e, 0x74, 0x69,
  0x61, 0x6c, 0x2f, 0x63, 0x6f, 0x6e, 0x76, 0x31, 0x64, 0x2f, 0x42, 0x69,
  0x61, 0x73, 0x41, 0x64, 0x64, 0x2f, 0x52, 0x65, 0x61, 0x64, 0x56, 0x61,
  0x72, 0x69, 0x61, 0x62, 0x6c, 0x65, 0x4f, 0x70, 0x00, 0x00, 0x00, 0x00,
  0x01, 0x00, 0x00, 0x00, 0x08, 0x00, 0x00, 0x00, 0x3a, 0xfb, 0xff, 0xff,
  0x00, 0x00, 0x00, 0x01, 0x14, 0x00, 0x00, 0x00, 0xe8, 0x00, 0x00, 0x00,
  0x0a, 0x00, 0x00, 0x00, 0x00, 0x00, 0x00, 0x09, 0xfc, 0x00, 0x00, 0x00,
  0x24, 0xfb, 0xff, 0xff, 0x08, 0x00, 0x00, 0x00, 0x8c, 0x00, 0x00, 0x00,
  0x10, 0x00, 0x00, 0x00, 0x00, 0x00, 0x00, 0x00, 0x00, 0x00, 0x00, 0x00,
  0x00, 0x00, 0x00, 0x00, 0x00, 0x00, 0x00, 0x00, 0x00, 0x00, 0x00, 0x00,
  0x00, 0x00, 0x00, 0x00, 0x00, 0x00, 0x00, 0x00, 0x00, 0x00, 0x00, 0x00,
  0x00, 0x00, 0x00, 0x00, 0x00, 0x00, 0x00, 0x00, 0x00, 0x00, 0x00, 0x00,
  0x00, 0x00, 0x00, 0x00, 0x00, 0x00, 0x00, 0x00, 0x00, 0x00, 0x00, 0x00,
  0x00, 0x00, 0x00, 0x00, 0x00, 0x00, 0x00, 0x00, 0x00, 0x00, 0x00, 0x00,
  0x00, 0x00, 0x00, 0x00, 0x00, 0x00, 0x00, 0x00, 0x00, 0x00, 0x00, 0x00,
  0x00, 0x00, 0x00, 0x00, 0x00, 0x00, 0x00, 0x00, 0x00, 0x00, 0x00, 0x00,
  0x00, 0x00, 0x00, 0x00, 0x00, 0x00, 0x00, 0x00, 0x00, 0x00, 0x00, 0x00,
  0x00, 0x00, 0x00, 0x00, 0x00, 0x00, 0x00, 0x00, 0x00, 0x00, 0x00, 0x00,
  0x00, 0x00, 0x00, 0x00, 0x00, 0x00, 0x00, 0x00, 0x00, 0x00, 0x00, 0x00,
  0x00, 0x00, 0x00, 0x00, 0x10, 0x00, 0x00, 0x00, 0x6b, 0x2c, 0xb9, 0x3c,
  0x82, 0x2a, 0x30, 0x3b, 0xcc, 0x09, 0xaa, 0x3c, 0xe1, 0x17, 0x7e, 0x3c,
  0xe9, 0x08, 0x6a, 0x3c, 0x38, 0xd7, 0x7b, 0x3c, 0x53, 0x31, 0x4b, 0x3c,
  0xe3, 0x78, 0x35, 0x3c, 0xe5, 0xb1, 0x84, 0x3c, 0x80, 0x89, 0x08, 0x3c,
  0xfa, 0x1d, 0x77, 0x3c, 0x6e, 0x9a, 0x14, 0x3c, 0x05, 0xde, 0xad, 0x3c,
  0x0a, 0xcd, 0xe0, 0x3c, 0x90, 0x0c, 0xa9, 0x3c, 0x53, 0xe7, 0xdc, 0x3c,
  0x1a, 0x00, 0x00, 0x00, 0x73, 0x65, 0x71, 0x75, 0x65, 0x6e, 0x74, 0x69,
  0x61, 0x6c, 0x2f, 0x63, 0x6f, 0x6e, 0x76, 0x31, 0x64, 0x5f, 0x31, 0x2f,
  0x43, 0x6f, 0x6e, 0x76, 0x31, 0x44, 0x00, 0x00, 0x04, 0x00, 0x00, 0x00,
  0x10, 0x00, 0x00, 0x00, 0x01, 0x00, 0x00, 0x00, 0x03, 0x00, 0x00, 0x00,
  0x08, 0x00, 0x00, 0x00, 0x62, 0xfc, 0xff, 0xff, 0x00, 0x00, 0x00, 0x01,
  0x14, 0x00, 0x00, 0x00, 0xe4, 0x00, 0x00, 0x00, 0x09, 0x00, 0x00, 0x00,
  0x00, 0x00, 0x00, 0x02, 0x08, 0x01, 0x00, 0x00, 0x4c, 0xfc, 0xff, 0xff,
  0x08, 0x00, 0x00, 0x00, 0x88, 0x00, 0x00, 0x00, 0x10, 0x00, 0x00, 0x00,
  0x00, 0x00, 0x00, 0x00, 0x00, 0x00, 0x00, 0x00, 0x00, 0x00, 0x00, 0x00,
  0x00, 0x00, 0x00, 0x00, 0x00, 0x00, 0x00, 0x00, 0x00, 0x00, 0x00, 0x00,
  0x00, 0x00, 0x00, 0x00, 0x00, 0x00, 0x00, 0x00, 0x00, 0x00, 0x00, 0x00,
  0x00, 0x00, 0x00, 0x00, 0x00, 0x00, 0x00, 0x00, 0x00, 0x00, 0x00, 0x00,
  0x00, 0x00, 0x00, 0x00, 0x00, 0x00, 0x00, 0x00, 0x00, 0x00, 0x00, 0x00,
  0x00, 0x00, 0x00, 0x00, 0x00, 0x00, 0x00, 0x00, 0x00, 0x00, 0x00, 0x00,
  0x00, 0x00, 0x00, 0x00, 0x00, 0x00, 0x00, 0x00, 0x00, 0x00, 0x00, 0x00,
  0x00, 0x00, 0x00, 0x00, 0x00, 0x00, 0x00, 0x00, 0x00, 0x00, 0x00, 0x00,
  0x00, 0x00, 0x00, 0x00, 0x00, 0x00, 0x00, 0x00, 0x00, 0x00, 0x00, 0x00,
  0x00, 0x00, 0x00, 0x00, 0x00, 0x00, 0x00, 0x00, 0x00, 0x00, 0x00, 0x00,
  0x00, 0x00, 0x00, 0x00, 0x00, 0x00, 0x00, 0x00, 0x10, 0x00, 0x00, 0x00,
  0x4d, 0x50, 0xe9, 0x3a, 0xea, 0xf6, 0x5d, 0x39, 0x62, 0x3e, 0xd6, 0x3a,
  0x4b, 0x13, 0xa0, 0x3a, 0x55, 0x70, 0x93, 0x3a, 0x02, 0xa8, 0x9e, 0x3a,
  0x38, 0x02, 0x80, 0x3a, 0x70, 0xa6, 0x64, 0x3a, 0x29, 0x31, 0xa7, 0x3a,
  0x7a, 0x08, 0x2c, 0x3a, 0x33, 0xae, 0x9b, 0x3a, 0x72, 0x3c, 0x3b, 0x3a,
  0x70, 0x11, 0xdb, 0x3a, 0x20, 0x9f, 0x0d, 0x3b, 0x50, 0xff, 0xd4, 0x3a,
  0x94, 0x2a, 0x0b, 0x3b, 0x2a, 0x00, 0x00, 0x00, 0x73, 0x65, 0x71, 0x75,
  0x65, 0x6e, 0x74, 0x69, 0x61, 0x6c, 0x2f, 0x63, 0x6f, 0x6e, 0x76, 0x31,
  0x64, 0x5f, 0x31, 0x2f, 0x42, 0x69, 0x61, 0x73, 0x41, 0x64, 0x64, 0x2f,
  0x52, 0x65, 0x61, 0x64, 0x56, 0x61, 0x72, 0x69, 0x61, 0x62, 0x6c, 0x65,
  0x4f, 0x70, 0x00, 0x00, 0x01, 0x00, 0x00, 0x00, 0x10, 0x00, 0x00, 0x00,
  0x8a, 0xfd, 0xff, 0xff, 0x00, 0x00, 0x00, 0x01, 0x14, 0x00, 0x00, 0x00,
  0x30, 0x00, 0x00, 0x00, 0x08, 0x00, 0x00, 0x00, 0x00, 0x00, 0x00, 0x09,
  0x44, 0x00, 0x00, 0x00, 0x74, 0xfd, 0xff, 0xff, 0x08, 0x00, 0x00, 0x00,
  0x10, 0x00, 0x00, 0x00, 0x01, 0x00, 0x00, 0x00, 0x00, 0x00, 0x00, 0x00,
  0x00, 0x00, 0x00, 0x00, 0x01, 0x00, 0x00, 0x00, 0x49, 0x4c, 0x81, 0x3c,
  0x18, 0x00, 0x00, 0x00, 0x73, 0x65, 0x71, 0x75, 0x65, 0x6e, 0x74, 0x69,
  0x61, 0x6c, 0x2f, 0x79, 0x5f, 0x70, 0x72, 0x65, 0x64, 0x2f, 0x4d, 0x61,
  0x74, 0x4d, 0x75, 0x6c, 0x00, 0x00, 0x00, 0x00, 0x02, 0x00, 0x00, 0x00,
  0x05, 0x00, 0x00, 0x00, 0xd0, 0x00, 0x00, 0x00, 0xf2, 0xfd, 0xff, 0xff,
  0x00, 0x00, 0x00, 0x01, 0x14, 0x00, 0x00, 0x00, 0x34, 0x00, 0x00, 0x00,
  0x07, 0x00, 0x00, 0x00, 0x00, 0x00, 0x00, 0x02, 0x58, 0x00, 0x00, 0x00,
  0xdc, 0xfd, 0xff, 0xff, 0x08, 0x00, 0x00, 0x00, 0x14, 0x00, 0x00, 0x00,
  0x01, 0x00, 0x00, 0x00, 0x00, 0x00, 0x00, 0x00, 0x00, 0x00, 0x00, 0x00,
  0x00, 0x00, 0x00, 0x00, 0x01, 0x00, 0x00, 0x00, 0xe0, 0xad, 0x1d, 0x3a,
  0x28, 0x00, 0x00, 0x00, 0x73, 0x65, 0x71, 0x75, 0x65, 0x6e, 0x74, 0x69,
  0x61, 0x6c, 0x2f, 0x79, 0x5f, 0x70, 0x72, 0x65, 0x64, 0x2f, 0x42, 0x69,
  0x61, 0x73, 0x41, 0x64, 0x64, 0x2f, 0x52, 0x65, 0x61, 0x64, 0x56, 0x61,
  0x72, 0x69, 0x61, 0x62, 0x6c, 0x65, 0x4f, 0x70, 0x00, 0x00, 0x00, 0x00,
  0x01, 0x00, 0x00, 0x00, 0x05, 0x00, 0x00, 0x00, 0x6a, 0xfe, 0xff, 0xff,
  0x00, 0x00, 0x00, 0x01, 0x14, 0x00, 0x00, 0x00, 0x14, 0x00, 0x00, 0x00,
  0x06, 0x00, 0x00, 0x00, 0x00, 0x00, 0x00, 0x02, 0x28, 0x00, 0x00, 0x00,
  0xc0, 0xfe, 0xff, 0xff, 0x18, 0x00, 0x00, 0x00, 0x73, 0x65, 0x71, 0x75,
  0x65, 0x6e, 0x74, 0x69, 0x61, 0x6c, 0x2f, 0x66, 0x6c, 0x61, 0x74, 0x74,
  0x65, 0x6e, 0x2f, 0x43, 0x6f, 0x6e, 0x73, 0x74, 0x00, 0x00, 0x00, 0x00,
  0x01, 0x00, 0x00, 0x00, 0x02, 0x00, 0x00, 0x00, 0xb2, 0xfe, 0xff, 0xff,
  0x00, 0x00, 0x00, 0x01, 0x14, 0x00, 0x00, 0x00, 0x14, 0x00, 0x00, 0x00,
  0x05, 0x00, 0x00, 0x00, 0x00, 0x00, 0x00, 0x02, 0x34, 0x00, 0x00, 0x00,
  0x08, 0xff, 0xff, 0xff, 0x25, 0x00, 0x00, 0x00, 0x73, 0x65, 0x71, 0x75,
  0x65, 0x6e, 0x74, 0x69, 0x61, 0x6c, 0x2f, 0x6d, 0x61, 0x78, 0x5f, 0x70,
  0x6f, 0x6f, 0x6c, 0x69, 0x6e, 0x67, 0x31, 0x64, 0x5f, 0x31, 0x2f, 0x45,
  0x78, 0x70, 0x61, 0x6e, 0x64, 0x44, 0x69, 0x6d, 0x73, 0x00, 0x00, 0x00,
  0x01, 0x00, 0x00, 0x00, 0x04, 0x00, 0x00, 0x00, 0x06, 0xff, 0xff, 0xff,
  0x00, 0x00, 0x00, 0x01, 0x14, 0x00, 0x00, 0x00, 0x14, 0x00, 0x00, 0x00,
  0x04, 0x00, 0x00, 0x00, 0x00, 0x00, 0x00, 0x02, 0x34, 0x00, 0x00, 0x00,
  0x5c, 0xff, 0xff, 0xff, 0x25, 0x00, 0x00, 0x00, 0x73, 0x65, 0x71, 0x75,
  0x65, 0x6e, 0x74, 0x69, 0x61, 0x6c, 0x2f, 0x63, 0x6f, 0x6e, 0x76, 0x31,
  0x64, 0x5f, 0x31, 0x2f, 0x43, 0x6f, 0x6e, 0x76, 0x31, 0x44, 0x2f, 0x45,
  0x78, 0x70, 0x61, 0x6e, 0x64, 0x44, 0x69, 0x6d, 0x73, 0x00, 0x00, 0x00,
  0x01, 0x00, 0x00, 0x00, 0x04, 0x00, 0x00, 0x00, 0x5a, 0xff, 0xff, 0xff,
  0x00, 0x00, 0x00, 0x01, 0x14, 0x00, 0x00, 0x00, 0x14, 0x00, 0x00, 0x00,
  0x03, 0x00, 0x00, 0x00, 0x00, 0x00, 0x00, 0x02, 0x30, 0x00, 0x00, 0x00,
  0xb0, 0xff, 0xff, 0xff, 0x23, 0x00, 0x00, 0x00, 0x73, 0x65, 0x71, 0x75,
  0x65, 0x6e, 0x74, 0x69, 0x61, 0x6c, 0x2f, 0x6d, 0x61, 0x78, 0x5f, 0x70,
  0x6f, 0x6f, 0x6c, 0x69, 0x6e, 0x67, 0x31, 0x64, 0x2f, 0x45, 0x78, 0x70,
  0x61, 0x6e, 0x64, 0x44, 0x69, 0x6d, 0x73, 0x00, 0x01, 0x00, 0x00, 0x00,
  0x04, 0x00, 0x00, 0x00, 0xaa, 0xff, 0xff, 0xff, 0x00, 0x00, 0x00, 0x01,
  0x18, 0x00, 0x00, 0x00, 0x18, 0x00, 0x00, 0x00, 0x02, 0x00, 0x00, 0x00,
  0x00, 0x00, 0x00, 0x02, 0x34, 0x00, 0x00, 0x00, 0x04, 0x00, 0x04, 0x00,
  0x04, 0x00, 0x00, 0x00, 0x23, 0x00, 0x00, 0x00, 0x73, 0x65, 0x71, 0x75,
  0x65, 0x6e, 0x74, 0x69, 0x61, 0x6c, 0x2f, 0x63, 0x6f, 0x6e, 0x76, 0x31,
  0x64, 0x2f, 0x43, 0x6f, 0x6e, 0x76, 0x31, 0x44, 0x2f, 0x45, 0x78, 0x70,
  0x61, 0x6e, 0x64, 0x44, 0x69, 0x6d, 0x73, 0x00, 0x01, 0x00, 0x00, 0x00,
  0x04, 0x00, 0x00, 0x00, 0x00, 0x00, 0x16, 0x00, 0x1c, 0x00, 0x18, 0x00,
  0x17, 0x00, 0x10, 0x00, 0x0c, 0x00, 0x08, 0x00, 0x00, 0x00, 0x00, 0x00,
  0x00, 0x00, 0x07, 0x00, 0x16, 0x00, 0x00, 0x00, 0x00, 0x00, 0x00, 0x01,
  0x20, 0x00, 0x00, 0x00, 0x3c, 0x00, 0x00, 0x00, 0x01, 0x00, 0x00, 0x00,
  0x00, 0x00, 0x00, 0x09, 0x48, 0x00, 0x00, 0x00, 0x0c, 0x00, 0x0c, 0x00,
  0x00, 0x00, 0x00, 0x00, 0x08, 0x00, 0x04, 0x00, 0x0c, 0x00, 0x00, 0x00,
  0x08, 0x00, 0x00, 0x00, 0x10, 0x00, 0x00, 0x00, 0x01, 0x00, 0x00, 0x00,
  0x05, 0x00, 0x00, 0x00, 0x00, 0x00, 0x00, 0x00, 0x01, 0x00, 0x00, 0x00,
  0x9d, 0xd2, 0x57, 0x3d, 0x13, 0x00, 0x00, 0x00, 0x73, 0x65, 0x72, 0x76,
  0x69, 0x6e, 0x67, 0x5f, 0x64, 0x65, 0x66, 0x61, 0x75, 0x6c, 0x74, 0x5f,
  0x78, 0x3a, 0x30, 0x00, 0x02, 0x00, 0x00, 0x00, 0x01, 0x00, 0x00, 0x00,
  0x8a, 0x02, 0x00, 0x00, 0x05, 0x00, 0x00, 0x00, 0x6c, 0x00, 0x00, 0x00,
  0x4c, 0x00, 0x00, 0x00, 0x2c, 0x00, 0x00, 0x00, 0x18, 0x00, 0x00, 0x00,
  0x04, 0x00, 0x00, 0x00, 0xd0, 0xff, 0xff, 0xff, 0x19, 0x00, 0x00, 0x00,
  0x02, 0x00, 0x00, 0x00, 0x00, 0x00, 0x00, 0x19, 0xe0, 0xff, 0xff, 0xff,
  0x09, 0x00, 0x00, 0x00, 0x04, 0x00, 0x00, 0x00, 0x00, 0x00, 0x00, 0x09,
  0xf0, 0xff, 0xff, 0xff, 0x11, 0x00, 0x00, 0x00, 0x02, 0x00, 0x00, 0x00,
  0x00, 0x00, 0x00, 0x11, 0x0c, 0x00, 0x10, 0x00, 0x0f, 0x00, 0x00, 0x00,
  0x08, 0x00, 0x04, 0x00, 0x0c, 0x00, 0x00, 0x00, 0x03, 0x00, 0x00, 0x00,
  0x03, 0x00, 0x00, 0x00, 0x00, 0x00, 0x00, 0x03, 0x0c, 0x00, 0x0c, 0x00,
  0x0b, 0x00, 0x00, 0x00, 0x00, 0x00, 0x04, 0x00, 0x0c, 0x00, 0x00, 0x00,
  0x16, 0x00, 0x00, 0x00, 0x00, 0x00, 0x00, 0x16
};
unsigned int tflite_learn_13_len = 6872;

#endif // _EI_CLASSIFIER_TFLITE_LEARN_13_H_

